[PAD]
[EOS]
[UNK]
[CLS]
[SEP]
[MASK]
de
în
a
##e
##,
la
și
cu
##i
##a
din
şi
să
care
pentru
pe
o
mai
nu
##ă
se
##l
un
este
că
##t
##ul
au
ce
ca
fost
al
##le
##te
sau
##at
sunt
fi
##ea
si
va
am
prin
##r
##ii
##e,
dar
in
##re
##ui
##ile
-
–
##rea
##tă
lui
##ia
##n
##s
##:
după
##lor
dacă
##m
e
##or
##ului
aceast
trebui
acest
iar
sa
##area
poate
##i,
cum
s-a
##d
ale
##lui
##ei
##a,
##u
când
##ie
##ate
##are
români
aceste
ar
##ne
vor
cele
cel
##tul
ne
##ri
despre
are
##ă,
dintre
le
##it
##ele
public
toate
##ilor
##)
foarte
fie
doar
unui
##c
până
prezen
mult
mare
cei
ai
##că
vă
multe
pot
face
fără
tot
##”
##ți
proiec
persoa
##al
unei
chiar
organi
##ată
##rie
##nă
##;
astfel
era
##t,
nici
el
##ta
către
##ce
##rii
două
timp
noi
cea
te
ani
cât
oameni
##lă
privin
atunci
ei
##tatea
mă
între
unde
##an
domnul
specia
avea
peste
reprez
##ţi
inform
fiind
ceea
europe
anul
îi
##erea
##tate
fiecar
##nd
##rul
perioa
##iei
alte
cadrul
decât
##o
servic
produs
comuni
putea
eu
import
loc
##ează
##ale
genera
bine
intern
activi
îl
unor
##”,
politi
##),
într-o
acum
avut
sub
într-u
contin
person
s-au
propri
##ră
sistem
##ere
moment
sex
##iile
realiz
declar
acesta
lor
##ca
spre
parte
atât
partic
precum
schimb
contra
progra
utiliz
guvern
dezvol
minist
făcut
unul
##elor
noastr
##l,
respec
începu
##da
##ent
folosi
##se
proble
##ice
asemen
##ază
consta
##ic
comple
întâln
##lul
direct
celor
orice
consil
vedere
asigur
##na
singur
trei
timpul
prima
numai
1
##ut
faptul
##rile
însă
confor
##ând
profes
##irea
dumnez
asupra
înaint
ci
##ra
există
primul
##ză
autori
ori
,
artico
##tarea
constr
potriv
asta
2
dreptu
princi
econom
bucure
instit
biseri
##"
produc
data
##u,
##er
social
comisi
famili
##te,
intere
##de
##nt
mod
consid
aplica
trecut
##ire
admini
partea
încă
istori
##ții
spune
așa
##sc
ea
##ția
i
##tat
cazul
una
cultur
##orul
##iv
fac
3
##ală
stabil
##ea,
domeni
lucru
acestu
evenim
printr
##ni
deschi
națion
ani,
compan
rezult
zi
câteva
##r,
apoi
##ică
##atea
modifi
române
##tului
ceva
posibi
fel
##0
funcți
##uri
univer
ales
experi
conduc
##sul
obiect
proces
##oare
aproap
prea
##ării
##me
##nte
adevăr
își
răspun
##y
##ite
nevoie
##tare
imagin
dat
mari
spus
transp
parlam
materi
nou
naţion
urma
întreb
##ăm
##s,
##iu
doi
moldov
aici
##ări
##eu
îmi
##rilor
avem
următo
##la
societ
interv
##re,
##tea
necesa
##ar
propun
cunosc
invest
##ție
##nul
10
##ti
acesto
ora
centru
deveni
lucrur
##ei,
încerc
##iva
##le,
##ţia
##ze
5
întâmp
##ţii
milioa
##ui,
contro
locul
aşa
consti
cercet
raport
##g
echipa
decizi
cred
termen
partid
zile
an
astăzi
##iul
##ați
calita
transf
pregăt
vom
##eze
benefi
că,
i-a
##v
practi
președ
voi
##ie,
diferi
funcţi
##entul
##or,
exempl
toată
împotr
##…
4
stat
popula
bun
##ii,
##at,
asocia
caract
povest
##iului
erau
valoar
docume
îşi
solici
ajuns
##dă
medica
privir
##esc
priete
efectu
porno
obliga
##intele
##tă,
săptăm
deja
afacer
primit
.
nivelu
angaja
##tele
numele
dispoz
##ci
##ori
##ța
consum
##",
ele
oficia
împreu
drept
##ri,
înregi
##ului,
actual
ziua
##ită
lumea
##ști
implic
proced
concur
##ant
##-o
altă
dată
electr
online
##erul
baza
/
nostru
##ente
descop
the
număru
doua
ajutor
natura
puțin
munici
##tor
lângă
său
##n,
##ţa
##orii
lei
compet
inclus
sale
cine
anumit
pare
zona
parten
nivel
alătur
—
##nii
datori
bună
de-a
##lor,
l-a
având
##iilor
##z
##are,
suflet
facă
##ura
față
relați
susțin
tehnic
##ute
primar
unele
află
##ia,
statul
##urile
##să
înțele
##ment
preciz
să-i
##ma
mea
deputa
recuno
putem
identi
lucrăr
suntem
##ţie
##5
cauza
20
alimen
transm
referi
americ
recoma
deoare
##c,
30
##ații
##ască
preşed
##ica
republ
6
locali
studii
##nța
##ria
##şti
copii
luat
##il
luni
protec
##ne,
hotărâ
apropi
##nea
începe
aproba
care,
##ță
acolo
noiemb
spriji
patru
aleger
ridica
##mul
venit
german
##aţi
decemb
##nță
locuri
tineri
totul
înseam
permit
legea
anului
site-u
explic
vorba
condiț
crește
##.
##ul,
##tiv
telefo
să-l
promov
energi
spun
financ
credin
##iri
alt
oferă
salari
##că,
##carea
încât
##eri
15
situaț
închei
##4
##ană
##intă
##2
##1
##...
colegi
execut
octomb
ajunge
integr
putere
arată
##za
##ște
gratui
om
cuprin
tuturo
nouă
catego
faţă
analiz
tip
membri
##on
##cii
daca
meu
##nţa
##rie,
contri
depart
##toare
septem
legătu
##scă
##alul
mine
putern
ia
##ga
legisl
îți
și,
##3
majori
##une
##ru
##nele
dintr-
preved
bune
observ
##ate,
instru
punct
pus
vrea
regula
sigura
m-am
vine
aceea
interi
centra
da
viitor
capita
acorda
câte
spital
2018
petrec
nimic
existe
spirit
jocuri
destin
##k
##6
##eră
mi-a
##și
specif
aspect
tu
##ţă
cuvânt
##zat
adresa
##zarea
##x
înţele
pune
succes
martie
victor
##mentul
##ase
deoseb
vei
eviden
divers
##şte
puţin
întrea
##is
august
##7
##in
cumpăr
secret
7
probab
bani
comerc
##8
casa
măsuri
##itate
##cat
valori
##p
dumnea
urmă
destul
muncă
reduce
##erii
##au
euro
folose
extrem
##lui,
susţin
milita
copiii
condiţ
##rului
viața
...
12
##ge
##oară
elemen
luna
specta
fotogr
întreg
##ațional
statel
acoper
noi,
rămâne
##nat
litera
8
indust
apă
lume
##zi
struct
##şi
primăr
video
urmare
##ește
##atul
mulți
copilu
introd
##ve
înscri
:
frumoa
mediul
ianuar
##mă
sfântu
confer
europa
cuvint
lege
consul
accept
mi
mondia
furniz
acțiun
prevăz
unii
origin
simplu
modern
văzut
limba
sănăta
greu
##ență
scris
##ive
respon
##he
##nţă
detali
romani
##ata
ioan
calcul
terito
mici
desfăș
(
of
##entului
situaţ
ei,
camere
manage
aproxi
format
##sa
război
perfec
exista
toți
##care
poliţi
medici
prezin
ultima
primel
festiv
tehnol
##brie
##mativ
achizi
##mente
poți
formul
supraf
aprili
##lă,
securi
##st
exerci
câștig
##us
părint
##ției
locale
eficie
mijloc
pierde
parcur
##ație
procur
iunie
străin
jurul
deci
pământ
niciod
fața
##9
sărbăt
adică
##tăți
bărbat
cineva
studen
iniția
și-a
cinci
##h
s-ar
aduce
modul
tratam
poliți
închis
grupul
25
manife
termin
concep
##j
cam
##al,
altfel
ore
alexan
noapte
situat
##ură
##litatea
începâ
date
minute
premie
determ
invita
##aţii
judecă
acelaș
marea
adopta
fapt
lor,
•
subiec
##-
##bil
deși
corect
##inte
sector
accide
##itatea
conțin
##m,
##ing
campan
oferit
dupa
##voastră
compar
aștept
vizita
##ante
##-ul
viaţa
##os
scopul
dispon
creşte
nicola
##un
timp,
prefer
exprim
sexual
##ările
interm
aflat
defini
verifi
vedea
colabo
##tățile
asiste
echipe
monito
cheltu
##arele
jumăta
ortodo
nimeni
le-a
călăto
iulie
urmeaz
24
surpri
##orilor
aibă
##tății
regiun
puncte
legii
##an,
instal
##%
dau
contac
##ara
candid
strate
indivi
omul
##ilor,
şi,
punctu
femei
circul
imedia
mihai
mii
##ntă
gheorg
##am
ferici
magazi
februa
##ută
convin
dă
campio
##ale,
realit
acţiun
##ã
##ng
colect
putut
superi
urmări
rezerv
18
toţi
capaci
##“,
interp
număr
juridi
desfăş
tocmai
fiscal
9
multă
rămas
##telor
##et
română
14
soluți
…
faci
ta
apreci
11
instan
teatru
credit
##ația
dumini
ordona
mulţi
##ce,
doilea
##“
suport
mare,
mereu
şi-a
bugetu
încred
influe
duce
antren
ultimu
100
formă
aminti
descri
discut
religi
comand
cand
județu
(1)
provoc
faţa
##ice,
##mele
##ști,
artist
cazuri
fondur
dimine
##uă
ne-a
jos
##entare
##erile
caz
##ic,
mic
mulțum
##ţiei
sediul
##em
venitu
educaț
##es
scrie
ulteri
##ct
ion
drumul
recent
evalua
serie
îmbună
inspec
județe
16
dragos
trimit
fostul
vin
anii
##aţional
normal
moarte
facem
puteți
vreo
bază
##iei,
ne-am
privat
##rare
studiu
să-și
frumos
judeţe
##/
odată
copiil
##li
animal
critic
afla
elimin
obicei
l-am
niciun
indica
##nelor
orașul
căci
dedica
carte
îngrij
acord
perfor
cunoaș
măcar
acea
jurnal
50
noul
culoar
propus
ii
pierdu
stare
##torul
acum,
includ
hristo
coment
##eni
»
vreau
##rarea
vreme
știu
sus
membru
##ară
fotbal
2017
libert
finanț
intrat
##ească
ajuta
doresc
preven
m-a
condus
##b
forma
##erului
##torii
##zare
lansat
##utul
protej
resurs
c
##ator
operat
eliber
ascult
impres
##f
##ine
film
difere
suplim
13
##tăţii
distri
##arul
##lului
apărut
bucuri
pacien
##im
mama
necesi
ma
îndepl
măsură
motive
indife
trimis
##irii
tine
##lat
clădir
coresp
jucăto
facult
vineri
sporti
zilele
an,
vezi
##nta
numero
dezbat
acești
plus
fata
televi
învăță
acel
##ți,
seama
##şti,
judeca
atenți
bine,
rezolv
##ala
înfiin
cristi
aparat
cetățe
semnat
suferi
dea
joc
democr
##rat
cerere
niște
mult,
tinere
adus
muzica
n
aminte
locuit
##piului
român
noua
femeil
femeie
##ată,
##ste
miliar
dus
vârstă
##rent
revist
plan
lei,
##cu
##uit
rezist
crescu
afirma
fii
azi
suprav
felul
##eşte
place
lui,
22
comune
##ntul
viață
ordine
nu-i
##ător
##scu
dimens
uneori
##ediul
##nilor
vasile
fete
##aţie
corpul
uniuni
france
##alului
secolu
il
17
însă,
extern
deşi
mediu
vremea
filme
ultime
##ni,
poziți
găsit
23
miercu
perman
sfârși
##tăţi
britan
voturi
##ua
local
##tăţile
acelaş
##vă
##va
##oare,
demons
născut
19
infrac
efecte
x
##ort
fabric
luni,
contex
design
##bile
exact
celebr
curtea
științ
imobil
lipsa
văd
legate
##dru
##rele
##atele
premiu
varian
sâmbăt
câştig
##icii
##orului
implem
##pal
datele
consec
reveni
21
27
##ina
sufici
standa
grup
psd
parte,
28
academ
cartea
relaţi
reglem
ultimi
doamne
##tării
##tori
mănăst
dar,
anteri
cursul
ușor
indepe
reușit
vechi
totoda
##ionale
profit
##e:
cantit
atribu
cat
##tate,
strada
intens
l
rândul
adăuga
învăţă
el,
total
##eu,
priveș
intrar
întoar
târziu
##ății
confir
judeţu
##uare
distru
##uni
anunțu
omului
aveți
##mitate
prelua
scriit
##piul
celui
devine
lua
nicio
(în
##urilor
##d,
limita
ochii
apa
să-şi
##ici
##țe
lista
##aţia
26
sarcin
combin
filmul
(2)
totuși
abia
acordu
italia
uniune
semnif
terenu
merge
##ari
întrep
ideea
acasă
2016
banii
substa
##00
aştept
##erilor
presup
dr.
agenți
îţi
coordo
ue
expozi
##ntin
##antă
cont
spațiu
ești
mi-am
temper
picioa
li
califi
##eauna
compon
##ian
##ipat
lucrar
rolul
finali
40
chesti
trece
dan
apare
datelo
s
întotd
pur
and
trafic
condam
##ât
vrei
restau
denumi
##era
adrian
compor
doctor
piața
afara
31
m
mărtur
!
sala
locuin
păcate
tradiț
afecta
camera
mențio
părinț
respin
biblio
##ică,
mică
asa
iată
iniţia
copil
##..
da,
decis
##iuni
##ez
păstra
##o,
rutier
ajută
comuna
dreapt
oraşul
##sitatea
andrei
găsi
eram
orient
##ional
obține
permis
țară
iași
##lte
fondul
întruc
##ţi,
amenda
oferi
exclus
scurt
iubire
29
le-am
zi,
grădin
lumina
plus,
împlin
ocazia
nume
distan
conţin
ştiinţ
##ților
cere
##el
să-mi
##nă,
##ane
##tată
aici,
##iunea
numit
final
factor
concer
doamna
2018,
depune
aș
##zează
păsări
impozi
protes
##ss
mecani
##it,
titlul
mele
negru
soluţi
##entă
frecve
plecat
tău
calea
celela
poziti
concen
viaţă
simbol
bunuri
casă
##urat
aceşti
##zate
r
aceeaș
lungul
##izare
##iune
n-a
altor
suceav
##arii
l-au
direcț
poporu
motiv
n-am
anume
altele
vorbit
misiun
bătrân
##en
muzeul
sentim
înlocu
episco
##ivă
##mului
##sm
zilei
spunea
anunţa
##țiile
plăcut
finanţ
##litate
cap
pagina
acces
ştiu
zis
memori
modele
expres
anunța
ameste
pun
##ală,
conclu
fiindc
to
aparta
educaţ
aer
##]
fierbi
sigur
electo
##entele
unitat
teren
##ţe
absolu
certif
i-au
videoc
inspir
##iare
fapt,
##ș
starea
##unea
##ile,
curent
##sti
select
fiecăr
nr.
sa,
fiul
##tăților
ședinț
site
său,
intele
elabor
pana
clar
##gerea
membre
cale
adoles
deplas
nişte
daniel
sublin
remarc
george
##.ro
)
##escu
zilnic
tratat
drum
ați
(de
trecer
cetăţe
libera
facebo
##tive
2015
mircea
##tivă
depozi
##strat
bucura
##ial
avanta
##ş
victim
##ină
efortu
arătat
##ăţii
&
tare
intre
##ctul
textul
##sului
model
primi
sfârşi
cerut
##erat
##iu,
vârsta
secund
##enta
sine
pas
##erit
i-am
maria
buna
zile,
##cul
suma
creat
client
rog
repede
garant
mobili
codul
region
##gă
agricu
cer
##ațiile
inima
gay
des
##ența
părinţ
mandat
absolv
?
reclam
##nu
semnal
veți
sute
poţi
formar
caut
confru
aceea,
##intelui
direcţ
##nului
căsăto
rău
spatel
muzică
*
##tei
##ent,
hotel
##onează
cooper
rapid
tipuri
##izarea
2014
diplom
mâna
discuț
editur
parcă
rugăci
fenome
atinge
##strativ
ni
comite
impact
fundam
##zată
postul
acela
iași,
sensul
plin
s-o
##ră,
##onarea
prepar
##riul
măsura
învăța
pagini
arhite
dosaru
##cări
zece
încear
##entanți
conven
radu
aveau
##eristic
accesu
ucrain
##.000
reuşit
aplică
mijloa
##atorii
cursur
atenţi
carier
##tuie
##tică
lupta
ambele
englez
vedem
preluc
tradiţ
făcute
este,
agenţi
facili
modelu
bărbaț
simt
##ătorii
##nei
însemn
obținu
rând
auto
acele
##asă
patria
federa
pachet
vrut
zeci
##iar
clasa
sînt
media
##mi
lasă
țara
##ind
capito
confli
licita
planul
amenaj
fată
perspe
consol
recupe
emisiu
totuşi
margin
urgenț
vicepr
##iale
lăsat
muncii
cereri
amenin
##ntele
cărora
cod
platfo
revolu
dovedi
drumur
creşti
dispun
restul
vânzar
poată
##atorul
preced
lucrea
##nia
puteri
statut
mers
lichid
##ilitate
regimu
gestio
anal
profun
excele
contur
sfinte
##nie
post
culori
stil
echili
##lele
intra
reform
echipă
plata
liber
rol
minuna
automa
foto
acelea
căruia
lunii
elevii
nu,
##0,
2017,
alege
mine,
afară
##ana
zonă
fiu
mesaje
##iți
##tii
știe
stimul
##’
##smul
stau
suspen
##ra,
active
traduc
circa
##ională
scop
##ere,
marcat
intră
##ătoare
##nate
##ok
ceilal
aceeaş
fara
urgenţ
sens
poze
gabrie
cunoșt
pic
dumitr
interz
##bilă
tribun
real
aveam
##ativ
metri
aborda
atitud
##ărilor
facut
##ezi
##iere
##ători
viitoa
judici
##derea
orele
##iat
cînd
modali
60
##alitate
##ţiile
alba
cluj
rând,
finalu
dincol
biroul
fizice
##oase
##-un
km
clasic
curs
florin
t
sănătă
v
b
##narea
deci,
speran
##ier
plină
agrico
întocm
simila
crești
##w
mențin
scriso
##oarea
operaț
mie
act
provin
poartă
##âna
presă
piaţa
##xe
##sabilit
##ati
spaţiu
sezonu
##tia
tatăl
anchet
urmat
vieții
exteri
turist
grupur
p.
liviu
psihol
inteli
lumii
##mânt
versiu
sănăto
de-al
ba
metode
apar
violen
##iție
200
presiu
greuta
caută
mântui
asta,
##mentulu
scoate
2013
îndrep
##ţilor
fructe
##cia
##ir
transi
stă
puteţi
murit
relati
par
stăpân
costur
##amentul
munca
sale,
##mat
alta
întâi
unite
distin
##ativă
apoi,
încărc
clienț
negoci
global
##tura
a-i
##uri,
teolog
masă
sexy
euro,
discip
##ăți
unităț
##entat
reguli
calită
oferte
examen
##ita
##onare
##i:
creare
sua
teen
hotelu
##-i
plante
500
##si
căreia
clubul
d
2012
##ta,
u
exploa
fusese
new
priori
##ibile
încura
conect
durata
##anu
##entarea
##ştii
vede
multor
iau
volunt
##nt,
sport
conști
accent
meciul
ordinu
g
găseșt
didact
for
plătit
2016,
separa
perico
contes
##y,
##'
eventu
net
aflate
##mentele
ţară
caz,
fim
##ist
oportu
negati
„în
##-uri
p
xxx
##enţă
##cate
as
eşti
satul
gândit
apel
postur
##înd
capul
criter
seara
priveş
##tri
auzit
menţio
scăzut
##tra
autoru
##știi
prețul
frumus
arunca
vieţii
vigoar
artă
##ol
mea,
combat
lucrat
##er,
ieri
obţinu
vorbim
argume
alinea
##ău
săi
extind
dolari
##cările
ansamb
valabi
dragne
tv
##gie
poziţi
volumu
##rate
deloc
##rd
jocul
palatu
profil
##scu,
ambasa
maxim
femini
dialog
conser
traian
și-au
putin
vot
desigu
##tic
opt
##eaza
parohi
reflec
sesiun
căutar
desemn
catre
copii,
##nței
##gia
##rii,
cancer
justiț
turism
mitrop
unităţ
##âni
într-a
lansar
totală
roman
uşor
##ipa
lemn
##ur
##tăţilor
curând
com
##lea
crede
percep
##atorilo
##entanţi
atmosf
radio
delega
difici
retrag
##cte
##jul
premii
lideru
atrage
veni
##ative
monume
##ar,
mașini
##se,
aş
altern
oră
cauză
părere
##tructur
pro
##ns
lideri
vorbes
preocu
ţara
îndepă
##ibil
ajung
lumină
##ață
oricum
închid
efect
concre
crea
grijă
şedinţ
făcută
valea
tema
semn
progre
celei
autotu
etiche
adesea
bulgar
##sc,
vizibi
merg
parche
excepț
##aza
cartie
străzi
functi
##ona
sc
##strarea
abilit
crăciu
doreșt
jucat
##tie
comun
binecu
dorit
apărar
##pe
promis
planur
##lipuri
oricăr
creati
tale
##uirea
1,
infras
masa
acțion
##a:
urmăre
sper
dai
(3)
femeia
bolnav
liga
operaţ
medicu
expert
##v,
##riile
mulţum
încadr
cunoaş
eu,
împrum
aeropo
##ână
vizual
clinic
##ndu-se
imperi
##ori,
patrim
obţine
dezvăl
acolo,
discur
prilej
cameră
##torilor
ştie
aferen
vină
lună
2011
bogdan
##icat
##ise
adapta
##nţei
încălc
meci
##onat
lectur
##nare
satisf
##ani
##tar
dobând
urmând
compli
prelun
##elor,
##toratul
zone
##riei
urmă,
citito
##iţi
energe
prețur
durere
capabi
bugeta
locală
petru
ciuda
luptă
tulbur
joi,
aposto
discuţ
sesiza
zice
israel
alcool
riscul
oare
joacă
tânăr
deasup
0
##-a
sfânta
##iția
tendin
motiva
amplas
firma
##strare
minim
foc
##ației
păstre
nord
atelie
limite
băsesc
citit
liceul
vindec
minori
turneu
îmbrăc
vehicu
nou,
repara
timișo
statis
contul
compoz
##ogie
web
conşti
averti
##.”
##ându-se
top
plasti
scăder
##stă
sta
##ctului
ocupat
decora
ascuns
accesa
pronun
noștri
justiţ
gândur
craiov
##este
##ătorul
##urii
ingred
duc
##ch
marian
##uat
2015,
ca,
##eau
##tiva
##!
sensib
pui
it
școlar
banca
##gere
catedr
ține
##2,
##ed
##gi
lume,
[
##iții
șase
natură
fronti
vreun
oferta
iohann
##ue
##tează
ea,
învăţa
invent
sau,
talent
parcul
avocat
##ndă
##ion
manual
"
##5,
rusia
cărui
zic
##ţei
domici
altcev
extrao
depind
devină
a-l
##ței
busine
organe
aur
jur
2,
dispus
##ața
gradul
acumul
##ca,
contem
##inat
fizică
##ro
##abil
aresta
##nte,
atat
##lt
##u-se
scos
##buie
##and
##ci,
##afii
nation
##nează
##je
pună
asiati
educat
căror
##atori
sincer
##dere
boli
dorinț
##tăm
ungari
muncit
##melor
obișnu
##torului
şi-au
mâncar
dureri
incend
surse
##ara,
marii
prins
procen
împăra
##enţa
digita
vizite
fondat
pasiun
imi
atâta
împărt
mintea
seria
viziun
preț
##alele
stilul
deplin
acte
ștefan
sunteț
strâns
invită
marele
##atura
adaugă
##»
reacți
cinema
centre
state
##man
##aţiile
amator
pensii
aduc
cazare
##oasă
intera
maghia
##ă:
lucru,
apariț
aţi
vadă
treia
kilome
##tice
veţi
##?
##escu,
2010
zonele
##utului
35
mei
gen
vorbea
ingine
voastr
on
##ka
vitami
##rinderi
2014,
legale
soarel
proasp
pictur
primăv
mari,
##3,
„nu
excepţ
##iunile
gata
părea
lung
matrim
adrese
puse
oraș
constă
poti
##1,
normel
##ții,
unic
ediție
impune
sportu
sus,
regist
prof.
menţin
##as
nevoil
înapoi
pnl
galeri
##ene
muncă,
țări
insa
##ti,
basara
înaltă
##ai
mână
##ele,
##um
##na,
trupul
ridică
încălz
le-au
c.
optimi
casei
cetate
plăcer
##suri
liturg
conver
cunoşt
găsesc
pielea
arhiep
##ință
dori
f
degrab
traseu
lipsit
##e)
ana
aparți
să-ți
##uie
##inea
##ăţi
##ogia
##g,
sud
încep
școala
ocupă
viata
renunț
##iparea
nașter
olimpi
##lu
buni
##nți
##ivul
împied
paul
decat
diagno
făcând
vrem
##ba
##sele
##atorulu
a-și
întors
##eriat
intenț
google
ori,
linișt
derula
##nțe
demers
market
pătrun
forme
lungim
faceți
meciur
înconj
pedeps
votul
marius
elevi
##nile
##tări
##ete
bbw
scanda
presa
isus
##4,
favori
merită
medie
##on,
comună
civili
##cile
##ție,
##6,
iti
##strator
##30
meu,
depus
fund
##(
plânge
examin
absent
(cu
imposi
ajungă
ulei
conced
anilor
##smului
##scut
evangh
##ță,
ierarh
distra
școală
hd
##ja
##il,
verde
simplă
##țele
##tare,
descăr
tranza
loculu
##entar
sindic
nu-l
planet
##sta
juca
bucură
piese
stat,
proven
gura
##ană,
sută
acţion
căldur
magist
legat
##ești
by
300
lucrez
undeva
##aj
##ficarea
##strate
studia
ochi
purtat
alți
dispar
disput
„
înalt
mâinil
bilete
vlad
contab
corpor
##ini
2009
idei
japone
lingur
efecti
rezolu
ăsta
j
##strație
refuza
asemăn
austri
##nit
text
##tările
##sat
),
privit
mesaju
arăta
lovitu
##etate
iisus
##tați
părăsi
case
celule
fratel
##esc,
##z,
##xă
rugăm
##țiilor
70
senato
mesaj
##ţele
##7,
##-ului
##ter
respir
popesc
e-mail
evoluț
defici
spună
armate
acceso
##ț
grigor
vara
strălu
justif
făcea
ilegal
##dei
ascund
termic
minte
##rit
repeta
per
stradă
80
relaxa
##anul
acuzat
declan
antrep
32
armoni
dosar
ajutat
ponta
##ială
##ința
faptel
propor
incide
drepta
joi
fc
2013,
şase
grăsim
##iţie
##ru,
ziarul
##col
tempor
gospod
gol
presta
motivu
opțiun
romane
neagră
elegan
set
copilă
##ţă,
multip
flori
dorim
scriu
##tură
întune
n-au
avansa
găzdui
scurtă
##use
isi
risc
##în
mănânc
întrer
##aţiei
trăies
timişo
votat
sã
ieftin
regim
sanita
master
primes
aparţi
stea
pînă
##uită
treile
b)
##rt
genul
„de
bucătă
##lii
##itate,
##ational
știi
şcolar
##arului
est
##inta
vi
care-l
vândut
refere
##iv,
##cată
dracu
dată,
autent
maşini
dna
##inţă
picior
is
citeșt
##atii
actori
spate
cumva
punere
altul
ne-au
adecva
##zia
planif
acordă
cărți
etapa
mobile
calend
chișin
chinez
galben
alcătu
vreoda
esenți
##trat
00:00
expune
a)
##k,
nomina
rata
așadar
i,
noile
soviet
##e”
mai,
releva
##pa
45
seară
uitat
reabil
##ză,
d.
jandar
a.
lungă
compus
potenț
nevoia
aveţi
##icarea
oricar
voie
autost
cabine
incepu
##lei
colecț
elena
braşov
##bă
ordin
regele
2012,
vorbi
90
elevil
mașină
legume
alb
anual
primea
advers
întârz
##ire,
dosare
bicicl
##inţa
scena
anunță
sfinți
sfinţi
tensiu
##iţia
frunte
farmac
;
filoso
patron
intitu
##atului
stânga
tipul
lucrăt
2011,
##ințe
tudor
##me,
srl
##eți
vânzăr
aventu
„o
##a)
crimin
strict
cm
3,
vremur
linia
rețele
câțiva
or
##ntelor
##50
##mentelo
căzut
referă
##cu,
oradea
##seră
umane
fond
sorin
plată
m.
##straţie
r.
cadru
##os,
simpto
cântăr
##itor
opinia
prefec
##ionat
##nde
închir
cornel
legi
##entelor
multi
##eta
cealal
##riu
##vi
##hi
pensio
nu-mi
2008
opera
dorinţ
sumă
trăit
băutur
##iară
sat
purtăt
colora
##turi
##8,
##tru
blog
robert
creier
țării
milf
jos,
ocupar
rămân
ro
aducă
pădure
##izat
mascul
ţine
gândir
inca
mișcar
luate
penală
estima
##brie,
dificu
regizo
duhovn
##ts
##zii
afirmă
cluj-n
teoret
sursa
##eni,
naşter
##pul
simpli
mici,
##ţiilor
emines
export
150
poveșt
reacţi
##dă,
simți
ofere
pornit
occide
##ntului
renunţ
urmato
teme
##tiv,
##rs
mister
aduse
firme
##20
noului
pericu
##ivele
primă
strâng
##aţă
sfatur
scor
grade
mi-au
oară
veche
albast
##abile
cateva
pagină
grav
acasă,
live
devin
inculp
ieri,
”
abando
##tând
corp
idee
cărei
afecte
##ral
grafic
vizită
ecolog
sursă
incred
maximă
##!”
cronic
cookie
numără
prejud
demisi
##oniale
apariţ
lumini
tine,
intr-o
las
felici
##oara
vară
contea
##să,
##ite,
accesi
decide
păduri
##palele
medic
autono
romanu
finală
re
##inte,
##icate
tub
adevar
(sau
dispăr
îndrăg
răspân
factur
##ări,
rămână
##nată
cătăli
##uta
rece
i.
##ke
·
imprim
##co
##mea
scrise
super
bancar
##op
##ucerea
țările
onoare
##e;
##ţii,
formaț
autor
matema
admite
##tului,
intenţ
africa
alții
k
medali
normat
mihail
sânge
deceni
trec
33
##unile
5,
întind
vacanț
2007
timpur
lăsa
piele
##nda
fel,
suprem
##tor,
primii
cerinț
##gem
##iţii
tânăru
poezii
##ţ
##ilă
liberă
parale
poloni
ocazie
admira
petrol
dinami
lucrul
marca
prezid
celorl
insist
##riale
##-n
porunc
##ipă
rândur
club
##dul
„am
##afie
##ean
explor
linişt
##urarea
adunar
legend
brașov
cultiv
achita
##ortul
coloan
h
limbaj
riscur
cântec
stiu
s.
carne
șapte
ideal
redact
##lizat
comerț
2000
piață
suspec
aia
ce,
simple
clasam
noştri
##aţa
totali
dăm
chirur
buget
celăla
secțiu
iunie,
filial
##rea,
##uce
marile
martor
rezide
intr-u
piatra
vizeaz
klaus
preţul
autobu
##erare
aparte
melodi
##nic
iubesc
##pale
primir
prim
34
faza
penal
scenar
final,
(4)
condit
##rei
valent
cauzat
##etatea
porn
cluj,
nud
arbitr
##nţe
arta
##pală
free
scopur
citate
##ciază
##ck
costum
##natul
##cele
simte
închin
împrej
locuie
şcoala
autove
##é
păr
domina
scrisă
sibiu
gândul
obişnu
bun,
medii,
baia
ajute
parcar
prinde
meargă
depăși
gândes
firmel
ți
fapte
vârste
z
alţii
alţi
creeaz
##be
pasion
terapi
prives
lider
a-şi
majora
cuceri
##ad
##ățile
civilă
##pă
cs
#
##icare
dovadă
ciudat
terori
raspun
titlu
presed
##);
așteap
divizi
teodor
evoluţ
favoar
astea
vegeta
labora
activa
##-te
editor
##onul
șef
plecar
grad
##tati
însoți
alocat
ovidiu
înceta
vladim
lucian
##teca
sancți
##ită,
treacă
domniș
##uite
titula
apă,
creste
clienţ
##rma
vest
poezie
##10
##ente,
crezut
##atoare
şapte
actul
fundaț
protoc
preotu
ieșit
ceva,
moscov
##ry
fiica
spunem
muzici
titlur
mature
uita
evita
depist
apei
regulă
scrier
n-ar
comenz
##ficat
##a”
temeiu
vorbeș
antico
##rale
perech
csm
frunze
##ric
##ielile
vizion
mental
'
david
##ndat
##cilor
azi,
emil
chat
inscri
c)
##uții
##cea
spania
te-ai
sume
##ţie,
##9,
##ki
##iază
voia
stiri
emis
##ty
##eşti
##rează
lucra
4,
întări
iubito
%
oferim
##ha
adunat
hai
congre
inaugu
preasf
ilumin
##nând
##zând
48
căutat
castel
ilustr
##ko
demnit
##t:
lovit
##ali
##erată
serial
##ieli
##s:
oferin
bărbaţ
livrar
##.......
##t-o
##do
armata
știm
parfum
##ton
m-au
##sca
echiva
read
mulțim
adulți
##mântul
sunt,
##orma
##esti
desi
tranzi
restri
##stul
##to
nota
pavel
naturi
##ǎ
larg
diminu
îndemn
neapăr
note
activ
linie
agresi
decît
dramat
creato
întru
masaj
aparen
##[
piatră
slujba
chimic
circum
##una
ce-i
desene
formaţ
##iza
creați
##zării
##ut,
##ațiilor
legiti
semina
ţări
aniver
ediţie
chişin
be
report
##ve,
##la,
dovede
##ya
##i”
##agă
durabi
punem
36
at
oprit
cît
home
volum
pompie
tablou
##nţa,
civile
(la
numită
##е
toti
2010,
preţur
##bilitat
oricin
sancţi
multum
țin
listă
citest
regret
plimba
piesa
subord
legal
pline
trăi
rapidă
franța
##ctiva
##les
doreşt
mașina
părul
precis
##ătorilo
##anta
duhul
vacant
aflată
pat
##sant
disper
mp
##ipe
argint
depend
bateri
apărea
valeri
##ău,
atac
##com
manipu
băieți
##st,
franci
##ogic
##sează
târgu
nimic,
ştefan
confec
##ormat
recons
necuno
##atelor
postat
##one
##oni
notifi
remedi
##io
segmen
lacrim
bani,
învins
spui
peisaj
##ătate
şef
vis
ţării
scenă
eugen
reamin
##p,
hârtie
vinova
stadio
##irile
acasa
sens,
largă
şeful
##id
durată
salvat
##ly
37
porumb
##ziune
loc,
studio
(din
##ipare
replic
purta
##sității
toamna
londra
ha
citi
poarta
cumper
numere
luăm
##de,
serios
traver
doamnă
cunoas
bucovi
##list
doriți
##chi
##icul
inferi
refugi
##e”,
bună,
toata
revizu
andree
##ască,
##atic
##21
treaba
record
șeful
##area,
##ism
##erate
##h,
##i)
pregat
##ajul
##di
nevoit
##ieri
##om
maramu
apărăr
##aje
limbă
ilie
anexa
săvârş
baie
împără
maşina
penale
însuşi
pretin
spații
fundul
##anu,
asocie
##rilor,
##gii
etapă
să-ţi
##lată
senatu
drept,
##nță,
pleacă
ediția
tras
credea
medii
regăse
softwa
meseri
animat
gimnaz
întorc
##ogice
semne
„a
impus
ele,
viteză
iei
acelui
rus
pedeap
înalte
coborâ
negre
fost,
##dat
petre
climat
##и
incomp
bucur
bineîn
##atice
săvârș
##buit
extins
iulie,
încânt
psd,
55
vii
ieşit
bebelu
##lare
##no
deține
##surile
##ber
38
##bui
##.,
400
proba
39
2009,
##tamentu
minera
##stra
##son
fetele
(a
român,
##ov
no
sexul
##ive,
automo
soția
gama
##urate
pricin
găseas
##25
întrun
câţiva
compen
devrem
depăşi
##th
îndrum
##-urile
forțel
vaccin
numaru
arheol
##tion
specii
##q
##sabil
pasage
##der
di
steaua
##\u
îndrăz
țâțe
părți
en
simona
port
cinsti
bistri
malul
##itoare
##x,
##enit
chemat
ceremo
bazeaz
44
datora
pre
geogra
mastur
##ac
##dra
##at:
inters
artișt
redus
favora
plac
limită
cutrem
trimes
##che
legată
##is,
weeken
##ăr
##enii
egalit
maicii
sală
atâtea
##asa
##relor
satulu
milion
san
cadrel
mm
dinamo
6,
gaze
sfânt
##nţi
demara
boala
planta
indian
atins
catalo
“
##uarea
formea
descur
pretul
christ
##hie
tânără
credem
‘
42
n-o
(o
arte
scorul
gamă
##sem
predic
##eghere
buzuna
opri
sacrif
pielii
##î
##alelor
##ifice
rădăci
##ada
ţin
adânci
ta,
##ons
arate
metoda
citesc
plătea
pace
##ivitate
selecț
##bil,
pusă
metodo
##ogii
metodă
##ament
trage
pricep
suferă
revine
cotidi
raza
vie
shemal
##rată
##in,
mobil
grave
mişcar
41
##rtul
##tară
difuza
atras
pomeni
##99
65
47
##colul
portof
majore
##nu,
biolog
«
##ntat
italie
așa,
##rde
pietre
##zi,
brandu
vaslui
atacat
##go
uite
montan
câmpul
##gic
http:/
##cării
claudi
et
mutat
utilit
mâine
##ării,
ţi
poli
legile
##ee
ambala
oraş
##rării
actele
reale
##ace
ținut
noii
##istul
##inarea
însoţi
##18
du
crezi
##ară,
„la
sticlă
adăpos
period
comput
##zeze
##22
prosti
##ierea
albă
grecia
şcoală
##ițiile
accele
tara
##tem
000
51
##ual
virtua
##xul
anunţă
spanio
aflăm
##nal
limbii
##țat
inaint
fi,
gust
artifi
##tuit
##elui
episod
urgent
##inţe
unirea
mergem
(care
##nale
43
##oi
evolua
##ole
care-i
john
cate
##ant,
debuta
##’s
deranj
bea
grija
ducă
china
înteme
despăr
entuzi
urcat
puține
##lvania
creaţi
deocam
tva
sezon
2008,
##entând
antici
##lelor
##uia
homose
pleca
spus,
##trează
preoți
##ase,
casele
costul
##te:
##dată
dn
soare
cărţi
e.
turcia
lapte
regatu
întreț
acelor
##toare,
ore,
însuși
##40
senzaț
##nța,
solida
atacur
bloc
primei
##fie
aşadar
curte
naviga
##og
preten
##strează
##12
pornog
##11
propag
modulu
##ji
simțit
pt
toamnă
##anța
w
ml
cfr
motor
poate,
##fa
când,
##eul
seara,
2006
utilaj
sculpt
depuse
##pat
viteza
vorbeş
absorb
vazut
bate
cafea
##tre
citat
##–
y
sunteţ
##icativ
circui
puteau
##ment,
sol
iese
uită
rea
judetu
rom
dor
vina
domn
firmei
##est
taxa
con
##abilă
inedit
satu
black
fizic
van
##ierii
semnul
sua,
potenţ
##ă”
iarnă
minciu
împărț
tau
reţele
orizon
cã
lesbia
##șa
oficiu
preţ
prospe
protei
comisa
##e.
##*
neamul
##mare
chip
serioa
paris
asista
##rală
aşteap
incerc
fragme
muntel
dinain
##-l
cupa
sângel
auzi
(galer
tur
pescui
găsim
soluti
trepta
tablet
##uțiile
##et,
window
##15
##rial
fix
ştii
ue,
taxe
mărime
aleg
one
52
##ității
##ionează
##ințele
colecţ
her
ati
n.
stadiu
arad
create
garanț
repart
aflați
v-am
46
interc
##lia
dormit
ocupa
călugă
lipsă
##dia
##ze,
deţine
opinii
avion
criza
vechiu
birour
domnil
mini
##unzătoa
##uţii
##ore
vocea
blogul
haine
esenţi
regăsi
##sia
##entale
##ule
art
blocat
##19
spuse
##pii
viorel
pensiu
##tit
îndoia
comerţ
poetul
##atie
##ot
marin
##oară,
țară,
##dor
##fica
plăti
do
întins
##ctive
exploz
vârful
vânăto
##ciu
ti
iubiri
papa
ten
orei
##ențe
cumpar
lungi
##ați,
ligii
##jele
##turile
##ionale,
oricât
##urare
stai
primeș
seară,
sustin
##izate
##şa
##zie
gând
iasă
litere
##ime
fermie
opinie
cinste
##dual
##о
##trul
stimaț
stratu
micros
mamă
catoli
discre
##eţi
sare
##eam
dovada
mor
perete
seamă
##ormă
sărăci
relate
formel
more
##ld
gri
##mar
cheie
(nu
##rafie
firmă
##dele
trăim
iaşi
##țarea
munte
votulu
retras
casă,
filmel
lumino
##ure
websit
##devăr
dinspr
clic
puteti
decret
ambula
neferi
zâmbet
util
##și,
##sităţii
uz
bătut
ales,
##eci
temati
mândri
##taţi
##á
##teze
noroc
##cii,
##ster
ies
sentin
imunit
##palul
boală
salvar
##ibilă
proast
uman
##tul,
dj
pa
har
versur
dobrog
##rdul
##lo
##%,
me
uităm
iii
regelu
##mei
ştim
manier
##zației
metali
non
acelei
(pe
vântul
##terea
genero
1000
libere
##lizarea
băncil
angaje
##-mi
târgul
cadou
##ează,
hotărî
##а
iulia
expedi
##toria
licenț
efort
##nce
tatălu
smartp
reprod
goluri
locați
zgomot
luată
capăt
extrac
defect
volume
##ici,
afecți
##mer
reuniu
reală
recolt
##ler
sondaj
consem
##atică
250
fascin
ţinut
ignora
oricân
//
##onic
##urată
băiat
gustul
75
##60
inovat
cui
fosta
secole
birou
##entativ
descar
rog,
##mate
cadour
stătea
datore
##arilor
uleiul
##24
intreb
rapoar
##a.
lesbie
sine,
maestr
lege,
deținu
##ap
##entate
100%
trump
codulu
provoa
##ș,
(4
desfii
înclin
##01
##nţă,
legii,
carol
vreme,
##ş,
buleva
##tere
semnăt
prim-m
##toriu
##a-
maximu
fereas
##entată
120
grea
cărțil
bruxel
înlătu
##fe
atît
sibiu,
script
tone
64
##pre
modera
nordul
pret
##cole
alerga
"a
##tu
##piile
gândea
fire
##enții
##stic
franţa
delica
erotic
vechi,
finala
promit
jucări
trai
fișier
##ner
centur
##li,
##aţiilor
hunedo
##que
sora
ediţia
##eri,
##tuționa
vinde
val
##bi
##entant
##entantu
chipul
arata
vorbă
##nar
slujit
53
băncii
pragul
##alități
răbdar
##iesc
aerul
##marea
flexib
##rant
forţel
faca
mica
##ctivă
##ora
superb
actiun
regia
atesta
umanit
unică
presei
costă
radica
conexi
50%
rusiei
##amental
asumat
##pala
creasc
##fia
(5
##itive
bune,
astept
floare
psihic
##oc
##edia
progno
tumblr
##atia
drag
##i.
junior
înfrân
dragi
emoțio
variat
7,
##tori,
adunăr
oareca
curții
piata
maşină
deţinu
butonu
lase
##ismul
##enți
depășe
linii
scurte
i-ar
atent
apară
air
reţinu
##cați
2004
kg
##u:
meteor
##inistru
##ețe
unirii
sec
mihael
##şi,
esteti
austra
54
##sitar
națiun
rar
învier
giurgi
indemn
2005
marţi
trezit
##turii
##alităţi
portug
exclud
matern
click
##mată
##lează
nuclea
##siv
major
lac
incint
mărfur
##dea
tentat
corupț
cerul
mergea
întreţ
făcut-
îndelu
găseşt
preala
##tica
##ntare
plasat
uit
sumele
star
tău,
protop
ecran
##ers
penite
##eanu
10,
detect
presti
##cum
##iti
##es,
##up
depres
sună
brazil
##reze
piaţă
##torie
pensie
(5)
aruncă
49
revolt
##nti
minune
##ielilor
trupel
recipr
agent
viață,
izolat
2007,
spaţii
you
don
ac
cerinţ
a,
strigă
##so
grupa
##ciile
pr
piesel
##iente
simţi
##ese
pornir
"o
##mă,
știți
mergi
piesă
8,
##fică
consac
mișcăr
excurs
deceda
amândo
##onice
discri
polone
fu
##&abreve
ceas
ucenic
v-a
##ctele
##16
##lan
mic,
valoro
zonei
##țile
scurt,
##ili
pantof
cresc
bogat
##ăţile
indică
si-a
ko
interf
##ași
ofera
##ţat
usor
ucis
clasif
##ivelor
clasel
topul
operar
abuz
##ităţii
rugat
atract
##din
##af
oriund
gură
##du
totdea
cosmet
secţiu
iubit
ș
revin
##ficare
bătăli
fier
##i;
cocoș
școlii
##ung
##23
iphone
dovezi
##bru
dureaz
barbat
##ifică
##?”
ultimă
diabet
##şii
diacon
confid
rost
părut
##șii
micul
mamei
##țiu
##45
##02
fă
variet
##are:
link-u
lupte
opoziț
##13
stele
premia
dictat
venea
insula
##git
##devăr,
voce
##e-
##ariu
##ae
popor
părțil
tarife
epoca
bazat
portoc
##itiv
taie
înălți
cj
##ou
man
all
fecioa
aranja
##ă)
dezast
der
##iunii
##şe
##ific
totalu
criză
##.ro,
##ation
renumi
fundaţ
server
afișat
##at-o
alta,
##@
startu
alina
rău,
răzvan
d)
supune
("
##gul
mulţim
##strată
clasă
##zo
##ctelor
ron
antena
##nge
##ificare
pop
##une,
"în
##unii
mări
##zația
tratar
vas
##mente,
800
mac
men
##fice
convoc
furtun
lu
bol
test
##afia
fa
##l:
simpat
##izează
matei
prost
##ional,
compat
supus
ghid
update
spa
##ăt
##tat,
castig
romant
sa-l
kilogr
sudul
bijute
spunân
##bile,
iulian
probe
##i-
blocur
samsun
amănun
##uală
##oane
##piu
office
cuptor
##unzător
##ame
„un
încasa
##ndent
##asă,
##anele
##sme
minuni
##oneze
##ivi
nea
##ivă,
cimiti
compro
înving
dans
dunăre
##darea
##anță
folclo
orches
parint
pics
hidrat
frică
cauzel
plece
dublu
##zații
peleri
înmatr
montat
##rizare
##ților,
legali
cadre
na
mc
##t-
##șul
majoră
2-3
om,
pictor
##oase,
ionesc
prahov
e,
parc
world
japoni
incluz
ţară,
dulce
sigur,
pasul
##ip
tel
firesc
ţările
zis:
insule
carmen
„să
##care,
ă
56
vâlcea
tulcea
pi
preot
##tim
despri
vorbin
androi
##aşi
cota
marți,
toții
fantas
lo
##i”,
ciocol
patrul
##olul
recrut
gest
##uc
##onal
georgi
##uu
##strația
anti-
##e),
##.com
##alte
strădu
##he,
reface
##ó
ajungâ
bere
##27
ideolo
##rială
răsări
##sm,
##&
drogur
lumii,
##tățirea
vechim
##rada
##ll
părăse
mele,
##ibilita
##line
(și
##liu
##late
roma
##ariile
orasul
recurs
striga
scăpat
1.000
servit
ideile
părţi
##ks
extras
##iţiile
##han
##pt
oglind
evaluă
trăieș
soţia
config
„e
căuta
tata
ape
email
aprobă
inimă
inunda
desăvâ
lansea
##ft
##nțele
(mai
##ula
##dit
faceţi
plicti
raionu
##itori
dur
bio
temă
##her
##28
##zaţiei
vedeți
##dem
ceai
toate,
vacanţ
supăra
olteni
chinui
hectar
mal
##с
bacter
maturi
scăpa
sugest
##van
săi,
(„
##los
umplut
avizul
centen
opţiun
[…]
##/2
##sion
gaz
regene
]
(s
##tuţiona
##03
##14
bunul
călin
##ație,
q
simţit
izbucn
600
##uţiile
##uire
s.c.
up
restit
activă
##zul
##ţarea
##.2
##ela
marţi,
zborur
##straţia
##orturil
ºi
consis
brand
##ură,
traged
city
muscul
albe
forța
entită
coloni
##ls
afle
costa
umple
lăsând
##giei
moșten
ușoară
mediat
suc
reținu
acelas
##etul
##vă,
##a”,
##șe
nov,
motoru
sfătui
subven
berlin
mi-e
tu,
amenzi
bmw
ajungi
##ază,
##ari,
tre
altora
brut
dezamă
?i
##wa
aşa,
icoane
cartof
neglij
##uți
##sante
aud
inflam
##tament
nouă,
ge
pastor
experț
unifor
##âni,
##ps
(…)
selecţ
www.
senzor
##ff
binele
motoar
limbi
iarna
strat
nenumă
##aturi
figura
gestiu
acredi
bogată
acei
with
îndată
greșit
0232.2
boc
apucat
##ator,
lux
furat
##l-
marelu
ştiri
##inirea
sur
portul
mânca
art.
făceau
tom
insolv
##ţile
189
ciclul
gratis
dunări
ceară
unuia
##ța,
##s.
##ritate
##sie
deteri
##da,
noilor
##net
belgia
ierusa
zbor
##lizate
infecț
localn
##a),
mării
aceia
ioana
##rism
dat,
tricou
piscin
preoţi
por
emoții
##sarea
##tan
b.
articu
##enței
studie
pieței
big
prescr
tem
genere
ali
##rdinar
cauze
##liul
##anii
trupa
puteam
"nu
local,
scaune
sf
lot
##uli
show
blocul
##mo
##natului
năstas
##ec
bi
##antul
actulu
inimii
##ok,
dâmbov
del
bunici
ka
##ționare
omenir
combus
nato
##31
www
umană
##uțiilor
(pentr
ferest
,,
##-se
turișt
salva
9,
invoca
##port
deseor
##tivă,
puţine
##ver
##iunilor
canale
##aţi,
##nii,
tvr
portal
aspira
donald
er
via
bar
ochiul
adjunc
"e
pri
##asca
merita
##eli
silvic
##selor
viaţă,
astazi
pl
―
latera
dl
turişt
cost
clarif
define
sectoa
ieșire
asfalt
suvera
n-ai
vulner
martin
##vântare
##17
vostru
##j,
pieton
rezona
##33
rusia,
filozo
invers
##t.
##ble
adauga
##у
##asi
ec
texte
##eședint
tabere
start
moşten
##itare
insufi
57
##29
##nice
york
link
##ână,
ieși
tipări
##enție
##unde
sursel
58
mass-m
degete
curaju
capete
postar
##entară
cade
acid
##tari
vecini
str.
pantal
curăța
news
manevr
ip
numire
##pi
intrăr
clubur
minutu
dimpot
##ații,
numeșt
formal
##scă,
poveşt
posesi
v.
##sti,
"de
frica
arme
10%
##tiei
actoru
##tică,
patra
##ola
aerien
terape
##neze
urechi
trecem
antone
stagiu
vând
##ături
laptop
##isă
geneti
##uare,
prelim
go
testat
interd
genunc
intamp
supun
ăla
##gen
egal
trenul
##rhul
tradus
trăias
esti
tari
saptam
liceu
predar
apele
anglia
utile
cuantu
luați
##per
medita
ad
##oft
căi
##inată
var
aviz
##apoca
voi,
creeze
popa
feluri
card
##catul
sigură
veti
180
##fi
##r:
coreea
eroare
căpita
aflau
##rizarea
invata
dieta
ritmul
##f,
tv,
##iste
##ntă,
para
floril
##tive,
ponder
62
roșu
joace
##ida
licenţ
găsiți
##ficate
”a
ben
norveg
evacua
##70
##.1
##şul
iaşi,
##b,
lunar
înceap
luca
##nilor,
##rmă
artişt
mit
##nse
incepe
sunt:
scară
##mii
##ila
expira
rețeau
##icată
##sate
vinuri
necons
sălbat
langa
cristo
dotări
bre
##arelor
teoria
privea
##bia
focul
recept
adoptă
sugere
##000
ofertă
##ițiilor
##ăților
##ger
ps
crema
##oniului
soarta
adam
placut
infini
textel
##09
##sh
ie
if
##ență,
##ioniști
slab
„ca
alex
îmbogă
puncta
##55
##ct,
sanata
afecţi
zise
scot
rusă
legatu
##uţi
cursa
##aște
##litate,
##logie
188
##90
stan
număra
les
irland
##rivă,
##lina
ii-lea
paris,
așezat
știri
ras
io
gar
execuț
(se
delici
muceni
naţiun
bara
flutur
61
##mântulu
##buție
lumea,
pornin
adi
excesi
femeii
##uale
audio
buc
##‑
etape
plăcea
2003
îngeri
##u-
##ialul
imens
##entare,
tren
##idarea
abonam
adresă
popoar
impuls
albumu
##49
valida
##răm
##jo
aerian
##!”,
my
##26
##men
##ciat
##o-
##tel
sperăm
cardio
intaln
graniț
desfas
grele
debito
66
uni
memora
20%
turul
treabă
##duale
amelio
##oa
crista
orașe
##gice
notă
joculu
hainel
jo
aprins
mormân
##abilita
(n.
depăşe
cântat
marilo
forest
gândim
##ros
3d
##us,
probel
##ânii
##sare
nefiin
nebuni
forumu
##car
##ny
os
împărţ
##rdele
aurel
##mis
refer
marine
##ental
##eti
clipur
##e"
verbal
leagă
învață
gasit
exager
72
##zație
##olitul
##nd,
srl,
moneta
##â
forță
hormon
daruri
##'s
##ţa,
citeşt
##ătorulu
alegi
însărc
servi
##80
##und
adormi
mică,
aglome
(6
##05
tolera
eparhi
(200
scaunu
finale
cădere
album
##ierul
soldat
##í
statui
##ram
##42
##cție
ton
portre
antoni
##ița
##lină
irina
##sați
urbani
apple
a.c.,
##ten
vedete
63
monica
intru
eco
return
semi
podul
rețea
munten
și/sau
dimitr
##ptă
##ltură
##ide
cert
curţii
cărţil
##tant
horia
##ena
calori
doctri
adult
10.000
##/0
lună,
scene
##nirea
canali
recenz
şcolii
diavol
primeş
preajm
##alei
avand
sponso
cutie
clipă
##cului
sebast
târgov
încăpe
bacala
##ane,
ecranu
oarecu
riscă
liber,
lumi
##ătate,
##țe,
##îr
##sit
sar
părţil
##35
##04
##sal
nu-și
demult
creată
##iști
corupţ
##rta
f.
arad,
mobilă
carte,
die
ofițer
##teri
templu
decurs
##cent
doc
cuplu
viu
deșeur
handic
incapa
##u-i
g.
modest
dobânz
teamă
pdl
##ht
michae
împart
##41
handba
##po
puțini
parția
##bo
senzaţ
pod
##lin
##ys
unit
##enţe
aflaţi
##zatorii
aveti
##itie
viteze
rock
șanse
smart
##iţiilor
mişcăr
(e
##ova
buleti
##06
expuse
ve
pă
dacia
aducem
##tografi
colind
##inare
##cții
##apoca,
##ăminte
nedrep
##):
##icative
##ju
##orta
întrec
(...)
„cu
machia
##32
sosit
despăg
##nat,
sunat
debutu
##aș
reorga
nenoro
mirosu
emise
suceve
teleco
##for
indice
liniil
hot
59
##oo
(in
inutil
metrou
pc
dizabi
cipria
mese
microb
aşezat
##/a
pen
ritual
asimil
cai
durero
fiului
(ca
triste
face,
pedago
co
##75
vrance
copil,
lauren
veste
187
##țelor
##lități
mediu,
copaci
văzând
brăila
ultra
durat
he
somn
##ăm,
##ională,
veteri
muri
ofiţer
##ms
jean
##su
ul
moduri
laptel
geo
confis
apelor
regina
s.a.
67
alin
scaun
marche
##dar
degrad
recomp
parame
##riilor
impuse
spatiu
##ante,
(un
mark
##eţe
prime
stării
eli
cald
##olit
2006,
aerulu
ploaie
##lilor
##ologie
fan
slujbe
tranda
adânc
life
predat
aerona
##ful
specie
ajutoa
##»,
##liști
carnea
##tră
greu,
nemulț
##ucții
perche
iosif
foi
plenul
masă,
##inere
##cian
minime
##etar
##mai
păcat
##scute
obtine
##ismului
si,
vioric
școli
abanos
urca
alianț
3.
##uție
coroan
##zaţia
călăra
##ă;
##ucție
fals
##nați
inseam
refuză
##inate
##48
cavale
rotund
##r.
sport,
##n-
rele
cîteva
cap,
##orat
##\\
1.
##ey
willia
bal
except
zahăr
##52
##ing,
teste
laura
ku
##ă”,
##lla
neregu
piept
confuz
##tã
##orit
lingvi
tar
harta
poezia
tor
##ețea
##den
dura
insera
##aților
##aş
pași
băiatu
unite,
scria
##nici
atât,
##.a
dotare
##ex
niste
##ţe,
opta
##pro
##rului,
##eva
legilo
testar
##țată
marina
canalu
##enţi
atacul
praf
îndemâ
variab
sa-i
masina
bunicu
treime
group
##58
comedi
nunta
crucea
cheamă
spălat
desena
ex
gu
##я
sporit
##âr
69
arhiva
##nţele
avioan
captur
sfatul
##s)
dracul
bazate
știut
relata
##ker
##ințitul
„ce
alatur
##rări
dați
mu
(ce
banilo
soțul
roluri
bacău
##ho
trăieş
bazată
--
zăpadă
##ucția
falime
decisi
imigra
##ogică
186
„sfânt
unice
„este
##ard
we
01
cal
2002
operă
altul,
lea
teorie
după-a
amuzan
##bili
promoț
##stări
##onar
privil
luptat
##ud
sud-es
copie
##itudine
##udine
supuse
##log
##istă
făcut,
##entăril
conces
lemn,
mâncat
scoase
##bar
anular
##itorul
##ogiei
vertic
anuale
##34
##-vă
##oarele
##oasă,
vânzăt
lăsăm
##gan
cla
veşnic
##ionist
##init
filmat
turnul
pahar
##ţiu
uimito
unitar
##à
taxele
##95
verzi
neplăc
##va,
##cut
stomac
scade
##-le
pula
redusă
##ctiv
71
##orilor,
“o
aflu
##ep
clară
nă
##en,
„ne
nr.2
##inţele
păcatu
(7
unu
fir
##larea
##?i
76
actelo
bănci
audien
ob
testam
venire
##lant
nord,
##șă
je
##rile,
##08
mar
##ah
rafina
##itarea
fiinţe
visul
##ting
tăi
şi/sau
##ris
ze
acesti
rectif
ram
forţă
albi
bandă
paradi
lacul
##iţa
tenis
sfera
musulm
reuși
proviz
farmec
##zat,
ocroti
##ctură
știam
arie
ja
##toarea
##tata
##ero
12,
gândeș
capătu
##zor
oi
ştia
trăsăt
cad
înălţi
păi
fundal
##iștii
hotara
rai
tru
##mp
11,
##uţiilor
##erăm
unora
mi-ar
socote
metabo
chef
##niei
##izare,
rochie
gala
banda
##rindere
not
iliesc
##ipanții
micro
ieşire
##rme
##isit
##lizată
##gu
bogate
##hai
înmorm
##ã,
##zare,
stocar
##44
emisii
##zaţii
us
zero
numesc
(pre
##oniul
ra
##ist,
râmnic
bucată
indire
alese
mâini
simtă
77
##onate
concor
femei,
obosit
1989
vârf
##tea,
ritm
##ţelor
miros
forţa
gasi
##43
acuzaț
ber
alde
pauză
cupei
##enţei
domnit
##88
organu
##enţie
gravă
invit
tăiat
##39
##alizare
##iterea
pra
parţia
edific
astron
emiter
##etarul
tot,
spus:
##ajele
lasa
initia
bob
##lturii
șoferi
abține
##-am
##ow
roz
##ä
făcuse
(6)
1990
@
diana
73
##-e
##tivitat
avionu
toma
prăjit
##rh
85
dăncil
stinge
ipotez
mediev
tramva
##sen
sun
latina
ars
„pe
atenti
aderar
alunec
##xi
red
im
bat
tăcere
extra
(i
##țiuni
înalta
scoată
miron
față,
toader
74
“a
bazele
n-are
##du-se
ok
l-ar
##imi
pâine
benzin
ver
sintet
1,5
neputi
douăze
urmată
semifi
poet
hramul
autor:
##tatea,
vecină
speria
minimu
ființe
scape
##ntar
mul
norme
ciuper
forței
68
##lit
##oli
mana
gro
cult
browse
##ig
greşit
cifra
presă,
##tui
(vezi
urme
##mm
700
lung,
putând
##ivului
##ându-i
##e/
agentu
##iță
luând
casual
halep
pierd
galați
##mie
##buția
##nală
##scută
serbia
##orme
autoar
olanda
cerami
rostit
galaţi
toţii
obstac
2001
nu-şi
non-
ceasul
secţia
ordini
civil
vota
chi
##ani,
monede
##stat
bolilo
cruce
apela
digest
morală
plaja
„se
pu
##lizare
##ron
##ntarea
previz
trupe
##ima
(1),
emoţio
reduse
alin.
canada
##ctuale
##man,
##a;
semest
ampren
##rol
școlil
grupar
##ţionare
legală
forum
ț
ținând
##07
##pal,
ră
lă
metal
dotat
unanim
secția
bilet
reușeș
##36
egală
caldă
șansa
##mia
olande
alergi
ajunse
2004,
e)
ş
maica
##ndări
listel
consim
1989,
spate,
curioz
pradă
##ghe
##izată
numi
“în
out
##orile
făcu
##dan
preia
##zu
mângâi
ziduri
youtub
meteo
fo
închip
elev
tai
##51
##unilor
schi
livrat
##hu
motoci
"re
fiți
salonu
##cit
negri
revela
##geri
##nitatea
impreu
dacă,
##liștii
##entează
domnie
##ământul
##m.
##eşedint
firea
ieşi
brusc
reține
înflor
comemo
pariur
##fo
patrio
##let
##ției,
##ăţilor
##r-
satele
##iale,
vreți
##lip
##fer
spe
##30,
rege
##',
##46
##stare
clasat
##lar
„pro
actor
botoșa
uscat
##ţată
##1)
finele
lemnul
max
tranny
țării,
##iciu
##ano
rachet
vremii
țină
(1
-,
rambur
##anţa
5.
extrag
rupt
##.5
ferovi
transn
##cţie
##ciul
##tatii
tra
##fic
ri
muntea
pereți
##cat,
ga
##ino
##c.
masura
privi
##bu
##-2
stațiu
##renoria
voievo
suna
garanţ
mp,
dorin
fanii
##el,
rămase
restrâ
art.1
enorm
asasin
cercul
caute
finisa
ger
somnul
fază
roman,
fe
ala
ki
za
##atură
unde,
cereal
##37
bac
##sei
duș
(şi
##enţii
2005,
bur
vestea
cd
că-i
degetu
cerc
spune,
atrag
##96
##jului
##atea,
anunta
compac
##iș
simult
stresu
sân
##can
surori
morale
folos
marți
puţini
redesc
##eriatul
aprovi
##ești,
##vel
octavi
artei
e-
##ător,
plâns
sud,
##85
''
săli
creamp
##ctura
##t)
tale,
darul
##naţi
martir
compun
grupăr
##aţilor
washin
aur,
păstor
##gent
ionel
intimi
trager
6.
taxă
##nci
##ds
bugete
urban
numeşt
gândi
##inței
##isi
##ializar
##ă-
##ay
polite
dublă
marcel
câmp
cremă
elveți
##u-l
eur
##aturile
(inclu
galaxy
autoht
sea
##onale
mega
##anți
madrid
(an
play
##zaţie
(c
teribi
ruga
clare
##ng,
##ință,
78
##rin
asia
diaspo
ajusta
iv
încalc
1)
ușa
##fin
##56
##za,
2.
vad
clase
dădea
pretur
##afiile
neresp
99
vanzar
oana
ordina
minimă
single
indici
##tabil
##bul
##zări
îmbătr
opere
##logice
##vii
##ariatul
##știlor
sfert
penali
post-
oră,
covasn
##ma,
##cal
##dare
enumer
râul
oa
##97
##-ne
metri,
##enția
##bor
##gică
##anţă
retail
curat
##59
##eze,
##buţie
##98
##n.
##iare,
##ste,
tărice
clipe
dvs
trepte
##sco
##ö
##i),
armă
##tam
##bilă,
reunit
aprind
acorde
##toarele
reusit
##53
„dacă
plătes
sosire
ig
anvelo
limbil
bor
gă
boteza
finant
anuală
az
domni
“de
(u
##luri
##ţiuni
leu
multe,
##retat
anonim
82
apelul
(201
drăguț
ke
##cie
##az
diamet
anunț
##uș
cândva
descen
îngrop
carbon
##-200
coboar
luarea
islami
##s-
aici:
stie
##lim
##nel
ştiut
arde
(8
iz
##ama
scara
oug
##loase
##tic,
le-ar
gravit
barier
##riului
##ote
punând
##ky
##cărilor
cosmin
beton
decont
finlan
cărții
##ătă
##bra
lenjer
săraci
senior
pisici
renova
##sel
sha
##işti
84
onu
opresc
cos
##’,
parter
precip
teama
##celor
forțat
##onică
băi
clasei
##ag
ya
в
##smele
rece,
bă
##aşte
##itorii
anca
##n:
lipsei
jucato
şa
figuri
unghii
ridice
hardco
##ormarea
##aţie,
umane,
##47
8.
##72
alea
tabelu
ambii
magnet
##r)
ura
ochela
##ling
mersul
that
4.
oaspeț
vară,
02
##gea
aceeas
tânăra
scurge
locaţi
te-a
acuzaţ
cre
plajă
##ențele
suprap
##ham
##zele
domnia
modă
picătu
cuplur
armată
##aru
##teni
ȋn
băut
usl
pnl,
iubeșt
subter
hol
##retarea
##ies
câtă
##wi
##71
##2)
##iilor,
amendă
2018.1
calde
orașel
##89
##a"
cioban
min
##bare
##ا
nas
traini
95
ochilo
##şă
game
open
03
info
##alizate
mail
goi
clipa
ii,
asian
piardă
##„
##etă
(al
graniţ
7.
92
cardul
realis
litri
ureche
##ces
gi
corpur
ruse
basche
corela
##ku
30%
##ucere
##57
pretut
coduri
admis
##izării
##icitate
locuia
rau
##anului
mort
chiria
sindro
rurale
von
miezul
##rdinară
##versita
înfrun
adusă
rate
hard
frate
ari
staţiu
intest
##usă
rochii
semnar
wa
##65
subtil
ușurin
opoziţ
ploieş
litora
##rus
găsite
știa
bel
specul
ab
eficac
##voastra
valuri
mo
degeab
##înt
gros
vestul
##derii
##lian
##cios
„i
harul
##re:
hal
##cs
tul
reputa
##don
scris,
barcel
##64
summit
pornst
numite
greută
##i.ro
##sa,
strica
##tin
soi
răstur
spălar
„eu
sfantu
pussy
adună
##ret
seamăn
##xa
##nez
nemulţ
mortal
cânta
zilei,
secţie
textil
lotul
##62
##acă
83
(ma
sri
los
led
##cel
(g
cenzur
##ebi
##77
igor
##erirea
frustr
de-o
iertar
##ob
gara
##54
coeren
##ând,
afli
sociol
##ucţii
sfertu
##my
sinuci
##țit
##tilor
aga
eligib
##ritatea
vol
mei,
arhive
nicole
curaj
sâni
##t”
9.
fum
##ы
scuze
downlo
##cere
recita
##ească,
##len
##aci
vânt
gel
drum,
##/1
alumin
oraşe
ghi
##nari
alianţ
cp
biblic
##fir
evrei
185
##dorul
frigid
so
murdar
bucuro
„pentr
##gerii
mireas
usturo
##.4
den
spune:
îndeam
meniul
învaţă
trecân
(18
fântân
autoca
tir
##т
##ii:
ratat
beau
reţine
##tici
##66
promot
revend
##orie
recens
ani)
estul
##pia
astra
tată
păreri
rapid,
leziun
seminț
sergiu
duhulu
##cenți
dizolv
##iască
tragic
îngădu
temeli
##giu
##ban
severi
abuzur
с
##ras
13,
##nitate
##die
##ren
multa
"ca
evitar
brad
bei
virusu
joaca
cheia
portar
luptăt
stări
lămuri
motiv,
panour
curată
ştiţi
semnel
„po
88
doza
pilot
##tal
îngust
##tter
menite
##ina,
fin
##þi
##uiască
c,
infecţ
##indu-se
veșnic
id
##tecii
trasee
resort
##iscopul
bon
porni
dornic
##lie
prevaz
##ios
##onării
obosea
totusi
"am
emite
rubric
procla
cazino
##ctual
total,
##rice
cop
rapide
##cerea
litigi
##mit
vestim
uleiur
testul
bank
##arte
agenda
##eanu,
this
balcan
bran
suntet
reţeau
fugit
cons
anulat
##varea
minișt
rest
tele
##iali
fine,
pictat
##mas
##ang
maxime
ceasur
sugera
##uția
botoşa
##rte
ză
vulcan
băgat
##erite
budape
ediții
zilelo
gene
șansă
rand
##od
obligă
##ştilor
ofer
##ortului
deriva
strămo
miere
sectiu
ap
##ade
green
##atiile
mono
ieșeni
##ionalis
sintez
##ţit
speră
##iştii
07
##3.
##nes
##nis
##aţii,
##....
cumpli
placă
delimi
##р
##țul
suspic
cruci
ardeal
socoti
aseară
che
##ye
##ert
bancă
t.
##.3
coleg
curse
bir
##land
##treze
cri
##manță
peter
soție
arena
iasi
(vi
##tt
roșii
ideală
dentar
##94
depărt
ips
##țea
pp
atenta
##har
“i
reluat
întăre
##năm
##kin
confes
##ge,
tin
rândui
comis
##s”
lăsați
##retare
##pri
crizei
350
suedia
poza
platou
##tuirea
abuziv
eroilo
##cienii
înspre
##ek
valer
##abil,
ic
bet
##we
cadast
##pp
trofeu
##ață,
##ine,
ren
dispre
##căm
##rat,
revoca
0.
##al-
experţ
##ular
minima
##min
81
tă
raluca
xx
dom
##rlament
elasti
tro
hepati
grand
romano
sinod
##entării
impotr
șterge
copila
paragr
##nții
##omi
##eria
presus
anton
ban
nevoi
aleasă
slovac
încarc
su
##ndum
##sim
simpoz
col
“nu
cote
##vo
##.7
fine
avans
vorbe
acuză
tic
gre
gazelo
usa
fond,
cauză,
amploa
box
dia
dragul
audier
trup
##ortat
love
##ună
piteşt
##ăl
##rm
citire
cari
ot
##lle
trecea
îmbrac
restab
ploi
140
##38
viza
##sabili
criste
##pte
bolile
##ectarea
bucata
ou
##-s
ploieș
extens
##ght
##eţea
cântă
tr
stins
##ndate
96
dăruit
##/e
##dy
bacău,
ungure
deopot
##92
mg
##lei,
microf
masini
cio
##ian,
utilă
ardele
soţul
##ieră
james
##cha
##resc
##-3
îmboln
deodat
infant
##opul
##iţă
##iuri
##iere,
romana
captiv
poarte
ed
oral
secol
protag
2.000
(15
ivan
arma
târg
juriul
fluxul
##etarii
##elul
bumbac
##iş
zid
iu
parado
uri
##bet
anti
mariti
##fu
cor
execuţ
inimil
2000,
amplif
mir
##ota
benzi
##fă
urmele
filip
bătaie
##mentat
audit
##uş
vechil
băieţi
puțină
adica
##olo
agenti
are,
##san
2)
130
trans
##uţie
(2
încorp
păstră
##nului,
şcoli
sunet
##ica,
”s
șir
colegu
##king
##án
î
infect
sco
urmeze
##icativă
##tz
##hel
##nut
##ece
dealul
masca
##sse
iata
##ata,
##jează
##eşti,
##anţi
##sec
orar
ct
muie
##icatul
##upe
șu
100.00
subțir
poiana
motori
răzbun
inregi
##lic
blogge
(9
munte,
##ostit
tortur
pol
ateriz
doi,
latină
milost
##nie,
##з
sp
cana
creadă
##elia
##ologice
sfat
măslin
măr
87
##rom
refuzu
ouă
rupe
(ce)
sfântă
nutrit
bleste
baze
##cţii
dascăl
nr.3
##lvaniei
bunica
dinu
nor
mame
time
##vent
##şte,
spin
bucăta
##brul
operei
adică,
##nk
trenur
##anda
##ăi
##cem
"ce
noutat
##bila
##ect
nr
alocar
##iscopie
##uz
setul
(si
întrev
carton
##68
##arei
##iune,
##4)
##entări
norocu
##ţilor,
biletu
gătit
sai
##c)
glas
##lon
##nc
##uci
împing
##erele
certit
14,
cursă
suedez
cc
##ificat
##jan
credib
avere
„te
abunde
despar
sir
charle
turn
grupe
5%
86
vredni
##inesc
160
job
disc
##ătoare,
sfarsi
##61
##ul”
dând
întîmp
„do
anghel
##ități
hu
##amente
vechea
##cy
{
moral
canal
##lvania,
79
amor
ocupe
scumpe
##curi
##lităţi
##tăți,
l.
##ucţia
mall
##ess
verde,
spectr
und
gastro
oc
sunete
actriț
oprire
##hin
##stice
lansa
##ntinesc
deşeur
(am
auto,
##ndăm
or,
ji
##hia
simpla
capulu
##alt
ţării,
##ü
pacea
##fel
cot
stăm
depusă
rezuma
##age
##}
##bs
##rul,
##й
l-ai
evaziu
##87
##cieni
grație
afară,
nevino
##ționat
placa
##his
acu
pildă,
hi
film,
multim
##our
##buabili
ghidul
câine
chitar
încet
##itia
aducer
dorea
ceruri
##ltura
##mânt,
89
has
plantă
impună
cautar
iancu
##pan
worksh
emoţii
viteaz
unt
cec
mușchi
inevit
mâncăr
futut
car
##girea
superm
full
secție
##tiile
110
ina
medier
##by
##uturi
##tur
stra
plasa
##93
mâine,
sam
etajul
botezu
textur
ură
##l)
colone
preda
m,
macar
dejun
##iului,
seminţ
1990,
sunetu
##hone
##.9
##inţei
divin
##ște,
##ţea
mizeri
fapta
##saţi
##izări
odihnă
(te
crin
coa
cezar
șoferu
##santă
ratifi
##ndată
munții
stop
##uti
fideli
sânger
cărţii
frontu
##84
##ser
gigant
râului
##91
cum,
center
##țional
##-o,
##des
voci
hotare
rănit
##ţiei,
horosc
98
modela
probă
subtit
stârni
##α
(m
##inerea
tri
mont
##rivă
serii
poluar
altitu
(re
bunăst
cauciu
ști
false
##vitatea
persis
locati
ian
goale
sumei
##-democr
15,
elveţi
##],
##3)
stre
„ar
tea
##av
regal
##urării
estime
biogra
##le:
##ghi
secven
românc
##stan
date,
fri
rurală
incat
##nică
duci
ziar
gravid
can
##ativ,
generi
plafon
„din
##pare
##art
digi
lin
##iată
##entizar
##vin
rată
##ucţie
##tice,
noțiun
##sar
simion
judete
##nim
##.6
ocazii
dormi
transc
##ucă
vătăma
iată,
recicl
feri
stoc
lei/
##liştii
##ngi
sara
##")
ph
mira
##hen
##când
rm
calato
##izi
cancel
##iene
park
##tesc
med
mentio
pieţei
munci
mat
amar
daţi
porc
mol
logist
##.8
desfac
##rec
##şit
sate
carita
##oro
sedint
iarnă,
anime
900
usr
##lişti
##78
abater
tabăra
##aţă,
limped
“e
##itul
##ient
##nități
##ziile
absenț
morţii
##onului
sie
(ne
##cra
şcolil
nori
egale
##ple
file
##ându-l
rătăci
ecumen
##tăţirea
##uro
exact,
dezinf
încete
kit
reacti
scufun
china,
citeas
(p
##cția
ore.
teorii
##aturii
indisp
deja,
##sitare
evolue
##0)
simțea
rural
oxigen
##cc
##oza
es
##ină,
plec
##79
obțină
##73
##utat
##unt
lan
poetic
reședi
mureș
b,
##uct
forțe
puțin,
tovară
##-ca
agro
##ins
##ial,
##entarii
grame
becali
geam
mis
##uției
##citate
cerebr
##{
tratea
##vici
##gon
miting
clo
5.000
##erie
##itivul
##cite
##ov,
vase
ru
totale
desen
coinci
merced
vârstn
tit
##erei
##if
anotim
colț
bu
##rare,
fertil
varsta
##yn
##hi,
împute
țărilo
##ndarea
##nator
##asm
păcăto
neam
„pre
ramuri
urmari
##bert
virtut
##pate
citiți
##-uri,
bronz
urcă
##piilor
book
##yl
uşoară
twitte
aleagă
(pro
##rtat
tare,
##5)
##smului,
montar
invidi
##xt
##iană
##stică
gestur
dânsul
cadă
tremur
lipses
##dic
##set
cafene
##hii
danema
prăbuș
războa
##nos
trag
nisip
greșel
##antă,
stănes
logo
calciu
chin
pin
„li
masiv
prăbuş
##şu
##riza
aude
zicea
ambiți
adever
##ican
##arile
culina
duh
buzău
##sor
##83
##icată,
##aca
debut
deprin
##nalitat
##ene,
cas
cumula
philip
##ef
oprea
##e-ul
isu
regiza
##terii
##63
epuiza
##uca
##jat
prizon
cunost
##uf
ctitor
inchei
cardur
liberi
16,
3-4
fiind,
iubeşt
interr
"la
##nării
milă
##orii,
setări
(po
cresti
##umit
ardei
##cta
sateli
piețel
muta
afecti
roşu
brânză
urât
97
testel
##d.
##ân
învețe
hor
părulu
##buţia
moș
rap
ii-a
##uin
##xual
sac
virgil
stefan
dese
##oe
confun
repriz
##stin
18,
##șat
nădejd
împlet
taxei
căpăta
văzu
variaz
gestul
##logia
##nțial
hrană
##ităţi
ramas
nascut
visa
rector
bursa
muzeu
aplice
ponta,
ken
112
##76
gradin
##etari
habar
nordic
##rantul
"i
##udinea
##86
ştiam
joci
teleor
roșie
cablu
luat-o
tuburi
##nul,
negru,
fitnes
furt
1-2
aprofu
moară
##tibil
may
răul
##les,
șa
##tatile
stalin
##oşi
cle
mil
stii
faţă,
opus
shi
românu
librăr
vo
elisab
sustra
",
şanse
superf
##tivele
##iona
coada
etaj
##rați
venind
2019
##citatea
##lări
zborul
##iile,
iulia,
precon
monstr
opune
##nca
biblie
teren,
avram
inamic
will
##nei,
clujul
##6)
trupei
(3
bucăți
ruta
##iuni,
##-urilor
##2.
comun,
##ute,
##ianul
delta
plimbă
nebun
medite
lat
unelte
nume,
strugu
##gre
’
17,
recurg
##tau
##oniu
predom
neramb
margar
îndrea
şo
##bit
absurd
##i"
etc.,
slăbic
##-re
##74
soare,
arătân
##rică
solar
gb
câr
site,
șe
chemar
##dal
sărit
##/s
gigi
uscate
mon
scoala
##entari
luaţi
moda
moise
##vit
petrea
angela
deserv
##easca
##dent
oct,
jan
##ship
cetăţi
##opiatul
iubitu
pâna
##ab
repetă
##caţi
##cații
dra
80%
##erizată
argent
cara
umidit
uşa
aduna
entita
joc,
primim
(199
patolo
(17
psihia
miri
fugă
##dine
însăşi
frig
##mic
simula
trezi
multit
displa
îngheț
##tm
astero
league
fortif
ionuț
clopot
v-ați
pete
cuza
iarăşi
##ley
##egherea
munţii
vr
manusc
##til
cardia
##via
##ose
“re
##cial
##berg
apelur
##book
pasă
##69
##inească
„ma
şoferu
relief
gât
soldaț
depună
##entală
ocupaț
91
##entă,
treci
##alizat
decesu
abordă
sediu
floren
##ății,
11.
##ato
##lent
antiox
odihne
culmea
aborde
gimnas
ferm
sponta
sticle
vizat
cuvine
##ziunea
##iar,
sexdat
##-in
##67
##ipanți
artă,
jazz
steagu
posta
uneia
##@bzi.ro
##pol
depun
res
##ete,
ford
##ctuali
184
decor
casnic
bru
bloca
##inant
reuşi
toalet
##ilă,
şoferi
dol
căutăr
marcă
##irilor
mision
##tist
reţea
nee
dateaz
aiba
carti
votare
ong-ur
mile
dezava
##mentare
penis
##hea
încurc
bizant
vernis
tudore
dam
##ain
sarbat
fronta
„u
adulţi
##ientele
mărunt
##tina
##lav
##ursabil
ruși
##tație
susten
##ormare
minut
îngroz
neîn
###
25%
prințu
##ст
##uţia
anaf
dna,
curier
##д
##du-i
mamaia
bill
marato
lovi
romi
vedeţi
ut
##afic
liste
slujbă
solo
evitat
##oasa
"po
bonus
gras
best
##sch
[...]
icoana
doriţi
##lea,
taxelo
salvez
nerăbd
##ost
##iției
vinul
rang
ludovi
st
(ad
mer
##erabil
defavo
dvs.,
macedo
just
carcas
##lice
mână,
sn
previn
reiese
împodo
##cli
numar
stres
##xului
magic
instin
2002,
##tivul
funcia
rețete
curăţa
răni
sintag
celula
elicop
culege
domnii
ciu
anunţu
##par
dos
bro
##rati
##iză
semeni
triumf
gunoi
greșea
##-de
##ort,
necazu
dis
mix
ferată
ios
##oși
alb,
pal
##ăs
mangal
profet
decent
aducân
reduc
##hy
pan
##mus
hrana
nei
trebur
##ţi-vă
gr
##-0
##icească
enescu
arăt
##m)
[1
##ood
dragom
fle
oaspeţ
##zațiile
04
(0
stângă
a-ți
##l.
zu
##nto
zonă,
##orarea
##litățil
camp
##uând
##sticul
um
îndeos
93
##osi
1999
izvoar
cifre
##7)
hiper
intreg
08
review
##ivei
richar
otoman
laudă
trauma
##tății,
băl
on-lin
##ionate
##zin
##tură,
##tanță
zen
##ăţii,
curios
dezbăt
##ans
ante
nervos
apelat
##sz
siteur
##”)
umbra
inde
cauta
privim
asi
##e",
glasul
expus
(t
##rante
noteaz
bo
cioc
atracț
alegăt
abstra
##ira
ţină
##ţional
glume
(d
mos
patul
verita
##buc
condim
##vat
vrăjit
13:
ur
câți
let
bec
##rn
intrea
##gar
grosim
##ias
revină
que
preuni
pozele
cho
izvor
##oba
(ar
nuanțe
coaliț
ventil
moare
##uim
dietă
oscar
action
graţie
##etăți
tenul
##zator
...cit
##asele
mineri
nu-ți
##manţă
##onală
##rio
##lescu
##kt
silviu
cuiva
pos
tăiere
##ț,
##ențiale
rat
dorest
mobila
bis
partaj
##timentu
pl-x
##cire
(r
beat
(ra
##ogie,
mara
cerem
##б
##țu
doare
##tuția
##,5
(16
amânat
2,5
##ovi
183
sti
##ie:
##oca
##rp
decurg
tracto
09
scump
##ax
##ciari
##risme
##ance
salon
parti
##roc
##ede
rare
##amentel
lim
##ţul
jurisp
##200
iar,
94
balcon
bagaje
##zie,
##eș
atragă
curajo
2003,
credeț
dac
"in
##ndumul
##82
însăși
(ba
înzest
recepţ
înot
apăra
sa-si
bihor
(7)
scheme
valuta
vai
fal
##oar
mori
##mite
##enţia
##ning
tronso
„in
bilate
##parea
înger
##sabilă
odata
ipj
premis
mina
scurta
patimi
iubi
##ogi
învârt
atacan
module
##rca
fugi
„g
she
clip
grozav
##enti
lunile
##yo
lipsea
unghiu
roagă
##cor
potabi
##ctuală
##rne
tab
##alii
cifrel
##8.
reușes
##ionată
salută
##ureat
##uiesc
episoa
banatu
iacob
cifră
obrazn
trata
cru
(cum
(ex
pagube
gavril
costin
##ricul
intero
albine
gor
mân
regală
oraș,
idealu
190
„mo
##odi
fashio
##ran
mig
##gle
ucider
trăiri
##iţiei
##mor
##bat
ingrij
##gy
pastra
##lac
vise
##ânal
viena
impoza
##pciunea
##ntale
tradit
„pa
##nesc
##țare
fibre
##cin
##nov
dezech
filtru
##dului
fm
##deauna
vetera
sumelo
predis
reflex
stim
##erizeaz
tinde
exigen
##nsă
sânge,
ir
"pro
##gs
stoica
##81
##ciarii
tour
##urale
aria
##ο
altcin
biblia
legion
##s"
lazăr
##ava
##deri
xi
coc
##erii,
ialomi
##adă
##lari
##orului,
##idi
antrop
parasc
nelini
ak
etapel
pâr
......
cădea
xix-le
le-ai
sanato
restru
(pa
buchet
înaltp
monahi
aureli
comp
##н
##iștilor
##ărie
gard
##uăm
marfă
40%
omor
20,
##tent
##onari
19,
##ţiune
arbore
##urul
##firi
temele
##y-
(f
##8)
buget,
fierbe
mur
ing
ae
gândeş
minişt
##ss,
india
tactic
"cu
##к
##oiu
far
„sunt
psihot
han
plăteș
egipte
declin
##upt
##eg
pct.
##tar,
##ogul
încolo
##sy
corina
##şat
##nzi
cata
caci
crucia
atare
##ord
îndoie
logică
luare
slabe
cup
asumă
##uţiei
conten
pătrat
##00,
##ariat
fotoli
##-201
##ol,
##cente
florea
mutare
##hor
accese
##i/
cărămi
pereţi
ardere
074
scapă
țări,
ib
buze
concom
paroh
iordac
morți
aportu
recepț
paşi
##ust
##uk
vândă
-1
##e…
„al
impun
##șu
fra
##opi
alegeț
urs
izvoru
județ
insect
harghi
ham
fer
pacate
##nară
ușor,
##rna
rob
pofida
video,
##sabile
##gra
palest
"mi
##pări
înceti
trecăt
echita
punea
arteri
supusă
maria,
operel
inovaț
puţină
##oriu
sloboz
fiii
petres
fiţi
sandu
persec
must
next
##enilor
##date
##loasă
##p.
##rac
sânii
implan
gangba
cîte
columb
catast
##met
căile
orgasm
##reasfin
##ista
##tește
jumata
readuc
ceauşe
##ciar
j.
zici
kovesi
dintâi
ascens
##zaţi
clar,
„da
##lnic
regale
##șilor
slujir
ce-l
cultul
forţei
invazi
adapte
##500
15:
trotua
sesiză
slava
erori
tichet
##aa
##starea
your
90%
totul,
cia
##con
##rdelor
chiril
argeş
sos
coco
stejar
moale
curata
##sată
uitați
##ove
##vu
cotroc
apucă
veche,
##iate
rațion
##qui
compil
##fan
##bin
sani
##usa
(mi
##iera
##pc
"un
cer,
##ncă
bombar
albă,
##strării
##bas
0,
##zațiilo
(că
taina
po
##uțional
mirare
farfur
fantez
##?,
mere
##ără
metrop
##tro
orname
întîln
##mag
ate
arhier
pornes
vodă
refera
iorga
vitali
##ă),
duse
##ntal
look
alinia
##ich
cauzei
##xe,
încasă
##eră,
umbrel
##zilor
„mi
interb
atestă
iso
##tut
##rească
geamur
ceaiul
est,
##iculare
şansa
bră
spi
##.e
maro
##cită
desert
doina
i-o
##ionişti
opreas
##las
##dec
idei,
##t;
""
##iește
##ierilor
udmr
##-au
##-ar
ţinând
matur
##fal
dansat
mureş
##в
##ntinopo
cr
dețin
##ământ
##aga
from
##ndente
##cio
nutriț
##ători,
##stea
morții
plâng
și-l
bolii
emigra
ce-a
##iri,
ataca
cladir
##itorilo
pază
bord
avut-o
##ted
mag
power
##rismul
dio
##pentru
„fa
##ionant
bloche
arest
sări
ye
treapt
răsplă
##ond
##eană
high
##-vi
##ențiali
miza
manole
stiint
demn
##/2010
cadavr
##anie
##ipant
antibi
##rând
colo
##voi
##tr
reuşeş
nivele
##dini
detașa
coman
lecții
daune
grupel
bra
##hon
##ți-vă
cn
##ken
spun,
amical
dez
discon
fermă
laser
bla
##int
tubul
##nta,
mila
##fon
terest
2001,
##ssi
##м
copert
te-am
ace
tricol
##u.
deal
rou
##ătură
poză
##ţiunii
derule
(10
„mă
##nciarul
curățe
##.)
##etri
reînto
nan
veneau
fixe
##yi
amplu
dotate
omolog
music
##ern
##ăși
but
##zan
șo
##stă,
astea,
apărăt
##zați
spori
folosu
##nan
pet
șofer
##lm
caragi
char
vizate
michel
grămad
##ik
fiinţă
renume
##esi
##eo
##ițe
fr
3.000
plini
##pu
frămân
(dacă
"se
noroco
piață,
seri
adulte
razboi
acizi
##een
improv
##cși
deport
medie,
câini
##sin
spor
##zate,
xml
##ulare
buzele
poseso
##fat
peri
patric
cafeau
zicem
##ib
bază,
181
##dată,
##ionat,
avi
##oliul
##nţii
floria
2%
vreunu
stații
##sului,
bad
virgin
##ski
oraşel
sclavi
##rum
##inţă,
actriţ
inlocu
##ctor
##veni
grade,
brunet
strain
mala
sigure
##mir
cv
ne-ar
instab
##-ului,
##ak
călăuz
copia
metru
##telor,
arbori
rușine
arab
blocar
##nor
##e...
şe
##zei
##-de-
##itent
1918
bai
##dri
##ative,
core
fac,
ag
bucăţi
##win
readin
saluta
supran
estimă
„ba
##bol
ăia
atare,
##mant
naster
##rtarea
##zăm
căutăm
ramane
nave
spart
##gat
##pin
sticla
numeri
rădule
##iciul
br
bunăta
##nic,
##oanele
06
##-po
##var
poker
rin
##9)
yoga
vestit
##gri
şti
cărbun
h.
poduri
##șit
##ntei
diicot
dc
arhang
aptitu
##mon
dăunăt
alții,
##lismul
fraţii
##îi
preafe
##ăni
incepa
pere
cuveni
inchis
trase
##l”
pretex
f)
05
adăugă
moțiun
făceam
(li
oțel
aromat
senat
tag
aflând
veniți
##oarei
toc
lipsi
pad
subsol
optim
condui
dansul
..
yo
solist
târ
##ndi
paturi
##aful
##piu,
salut
mate
unghen
tac
bli
întele
##mante
noţiun
elevul
intri
gazdel
art.2
##ipanţii
pai
cuplul
latura
buni,
bit
cord
##shi
numelu
pescar
compre
ara
##zionare
urbane
fi:
##cirea
125
operea
colest
dec
о
tabără
cascad
bot
largi
##cieze
(b
curate
creanț
##tații
nord-v
calm
devast
##ami
figure
nuntă
lași
bud
##ric,
taxi
dublat
șansel
uk
##cher
##sto
bag
##nia,
##anti
##-ti
camion
sfânt,
nord-e
monarh
evite
##rist
socio-
ter
purifi
ocazio
##șin
##gătoare
hip
ducea
##-catoli
mentin
##vul
greşel
obsesi
##raţi
##ocit
nete
##rl
convor
anunţ
copac
##gă,
##dam
ființă
lit.
dr
##imarul
iv-a
##ţiunea
mileni
##pla
pălări
##iţe
moto
##inc
##/3
găsire
soft
răc
20.000
##lului,
step
pris
и
##/199
iveală
##onarilo
lîngă
citind
fura
##ătoarea
##zer
foc,
fcsb
##onată
##ieni
##ub
alba,
##taţie
##ana,
câinel
cuvios
##ssa
unica
##5%
##alia
west
conjun
cuvant
##iant
serioz
##ipării
##aro
izolar
##uată
coadă
##sk
editat
##fii
ju
nostal
##țiune
##tarii
prisma
albert
oltean
geomet
o.
##nn
##işte
penal,
drapel
ceo
organ
cameli
neu
“ce
griji
atlant
lupu
scrisu
simţea
plo
clujen
##hat
divert
1.0
##uirii
lansăr
menstr
nicide
cotă
cf
##ţu
şansă
blue
##%),
duble
înfăţi
##res
tol
chio
##phi
donat
alegem
##sp
##-va
urbană
pară
îndato
##gând
coasta
chipur
stocat
orange
170
bri
nar
street
conf
##ţ,
back
trist
ediţii
nr.4
râs
şir
bos
comise
##n)
##imar
voiam
##ndu-i
alu
dirija
##olia
foaie
siguri
##cm
##hr
louis
##nite
(l
mase
oras
roma,
diete
yu
##cioșii
nel
îmbrăț
solid
##vei
##ult
##ez,
cincea
chir
##ctă
luptel
##ratul
mută
tei
cercur
birocr
##ionala
nul
nevast
##duală
##fort
rugam
##iala
##prin
eva
epocă
##rad
”în
ofensi
axa
##arie
smeren
nin
##erea,
schitu
##ur,
hă
seturi
forte
pla
pseudo
dețină
##atori,
încăpă
pasăre
eg
##ico
mingea
##pele
buzău,
##lat,
lunare
jar
recipi
##ro,
##rel
##ăre
dodon
pelicu
##te-
##nsi
molecu
pro-
get
încoac
cocos
##inei
venite
mergân
##.m
țesutu
intrăm
##onarii
##irii,
182
stră
aducea
lituan
##!,
(co
##nţat
vile
www.bz
##-ți
10:
riduri
sen
demoni
##tte
##ificări
##tamente
##-ma
spuneț
##bla
##aua
##—
##tis
##vor
##dt
soli
##ului:
thomas
zahăru
incert
golul
abroga
cl
##/c
evreii
vot,
op
merit
sho
fişier
alo
##ere:
off
jud.
usb
app
iarăși
mădăli
laculu
sibiul
volei
restan
-a
donați
##au,
venit,
##as,
forţe
##ovici
dușman
##m:
sal
##mos
rose
botez
roşii
creang
bunulu
apere
##tism
promul
vorbir
pd
alarma
penins
pron
##rită
repere
##dio
##tăţii,
dealur
##sii
king
smurd
##get
fizica
începi
##zător
prooro
arc
era,
plăți
##duc
alţii,
gasest
vedeta
dual
ami
##şilor
##mentar
##red
rudele
randam
reînno
banche
ani),
dulciu
##cari
avizat
greco-
##"),
##ume
##palitat
##ioase
##mond
apropo
show-u
monte
trend
##ndumulu
anna
"co
emblem
lentil
bazinu
apără
##vare
câteod
##.s
dirijo
scrii
##del
ionuţ
perime
##ens
comic
hollyw
ferme
cerulu
franco
##eză
ccr
under
reper
##aie
și-ar
adopte
##isa
raţion
frank
cli
temein
înveli
##burg
##ь
##ri:
##ars
##/ce
##stările
##etele
stomat
1998
##.com/
steril
standu
brânco
unghi
squirt
azil
##hicule
purtar
comod
##inut
podium
##țeles,
day
##ltăți
##rmei
##gător
##erați
sm
##:1
dure
eduard
chic
venim
jack
privel
ocupaţ
##ențelor
km,
terțe
hat
în:
(ap
pari
rude
##/b
(so
##rupţie
înfăți
##1.
pastil
ces
hidrog
##abile,
(di
fiert
inter
##țiunea
##,9
##ism,
crescă
##inite
alarmă
compri
cit
uriaș
wall
necont
cedat
fuziun
moa
##icări
morcov
##ensi
##riale,
întâi,
găsită
##chin
##bri
front
auxili
fermec
tastat
##rise
##ir,
15%
##ințelor
##pus
reşedi
lup
12:
îmbina
##pel
a-mi
##ăp
ciuc
lemne
##,1
len
costel
##ome
##blo
cuvînt
anume,
treimi
tipic
lejer
##ânt
##hip
escort
##iga
nopții
cole
##dd
line
aleși
munces
scă
reuni
lasat
înca
(12
iniție
vino
##mina
piper
minus
parere
canape
105
lau
lar
brutal
tănase
##org
##put
alunga
califo
b1
##ka,
sobor
firul
101
aparut
##cire,
##cti
interl
##eia
mărire
##ționate
rac
##fle
##rian
##gli
##nțat
orgoli
##oce
strani
ți-a
crimă
##ipanţi
drepte
(fa
optiun
mut
##rhiei
##tărilor
##rdinare
##).
##ett
zo
natali
102
praful
„re
semna
(me
##out
##cesc
fostei
ciclu
primej
carbur
tind
diferă
absenţ
mânăst
greşea
kim
moş
##ense
cică
unguri
##olog
"mo
fizic,
pomi
##urile,
înghiț
island
aus
canoni
##bre
##0),
##reta
împins
„ve
rase
##aia
noutăț
##itu
vest,
propul
nere
lăsaţi
imensă
##tecă
##ont
barbu
##,2
fur
lunga
##urări
fani
##eca
popa,
dela
pâinea
##u)
fură
dro
##nate,
##indeni
tun
hub
##rupție
perife
(prin
##centi
ăștia
##ux
##rizat
craciu
##erim
însa
zonelo
##?”,
##lităţil
sto
porti
##icerea
##emi
îsi
ple
montaj
##hiu
stanci
văzută
vel
obtinu
ecater
##hei
bc
viol
excita
peşter
flash
##hal
poc
colţ
zdrobi
d-
##è
talie
peșter
pamant
curge
veseli
##ționa
##ura,
expans
##stru
legi,
masive
##rf
bile
075
corul
lucrăm
land
zb
flori,
filat
##tes
axe
porcin
##mani
lacuri
câmpur
##ipante
neg
(2),
70%
##orn
11:
##nr
cerea
vamal
##-mo
densit
nichit
##ر
roxana
##rem
gazda
##zatorul
-//ep/
dana
vopsit
##șului
nistru
dragoș
##oco
times
##the
două,
nava
este:
suge
una,
teatra
anual,
##bal
reci
pes
filtre
metafo
##ulat
oceanu
îmbină
purtân
##apa
##tile
duşman
remune
##uiri
gy
iubita
aristo
poster
prețio
anxiet
dermat
ran
##-ul,
devota
pediat
luptei
perpet
lam
auto-
”f
##nența
portur
demola
bbc
nobel
##rai
##edi
urmau
##retări
mistic
intent
##ifice,
livrăr
##aliu
scop,
gustur
exces
##enea
nr.1
é
##pie
##piei
puţin,
omorât
##şor
hipo
##ár
fiabil
“am
greacă
gold
exotic
crucii
##но
lega
ferdin
ol
##așterea
detaşa
##cească
invali
piele,
##vis
##-terito
##ence
"ma
”t
marie
dun
##avi
fragil
##ajului
unire
cul
##afice
substi
(v
(k
teza
##icial
1-
iasi,
diaman
1,2
slavă
pavili
hotără
##‑a
credeţ
##zeci
vers
vasili
lene
barbar
atentă
##back
plăci
york,
##-bu
##zic
##vea
incarc
theodo
##mba
##fit
repert
încet,
înfăpt
lungă,
moli
ci,
bare
##/m
##inal
obţină
insulă
încât,
reluar
cetăți
##ndările
##isment
##sis
##seze
##urilor,
##riei,
cazulu
##ocă
##enţiale
##ph
doze
##eului
cazul,
atingă
scule
frații
restur
5-
##val
trezes
sufere
lipseș
##lentul
racord
##lentă
aripi
##sb
af
evreil
patrie
propov
lut
leo
slogan
merite
##alului,
numera
##lis
##š
tudose
rămânâ
paste
178
găsiţi
cilind
##/2011
vatra
copt
##nească
##orare
##rizate
emilia
##ware
##cer
fuck
##,3
115
vid
system
vizavi
moneda
staţii
##ficată
ținute
##tai
sosi
franțe
##manța
##ministr
parali
lămâie
–,
carei
##ualitat
##hiculel
anu
bnr
temei
(adică
ochi,
food
##&comma;
n-avea
##xă,
##riu,
fulger
##ga,
##iez
##tiu
##nizarea
pulber
##u”
fun
afilia
##1.201
prindă
pn
ținea
rec
(după
sold
##gente
##enţele
##ieşte
##vic
shoppi
etapei
ieșean
##urs
##uni,
##/f
##ifica
semăna
##/d
##-ba
##rg
odinio
00
creion
opreșt
coeziu
##/2003
##urg
pib
lăuda
blaga
sa-mi
break
##zy
(pu
##culoase
știu,
buz
##-u
##azi
cond
##son,
##nent
şu
arseni
##zen
terasă
sparge
##por
buton
##wer
hitler
primin
##bb
altar
kon
1996
##nților
avocaț
într
scri
##gue
##mi,
1.2
gon
necu
##onială
atleti
16:
projec
rula
naşte
împăca
johann
”e
ne-o
evolut
##ţare
##non
anasta
elevi,
precăd
##х
##ew
##gton
ass
veri
s-
##nită
lipit
plă
mercur
nr.5
##7.
inovar
gandit
carans
##rgi
##ν
fiti
##rd,
masuri
sony
sr
##zitate
vice
călcat
timiș
ti-a
lie
pieptu
vorbel
##ev
berbec
audito
##icilor
2:
##colului
##bel
venise
filarm
##rot
##ician
slabă
see
team
stilur
vale
dacian
udrea
##alți
deduce
call
muncea
pocăin
faptă
stand
##rti
##rator
##urt
măsoar
sas
creme
##cioși
##al:
iubim
nova
cosmic
##biei
bil
averea
##şca
##//
formăr
##sci
ah
##/l
străve
focuri
căutân
decoru
##nțelor
ruşine
ste
instau
##vascula
rev
situea
tronul
prazni
cha
liric
##eh
##hir
iposta
sin
dragă
##țeles
##eț
##ú
##enţă,
cutia
riguro
##trare
##lad
o,
pană
##uși
bată
robie
fetiță
##rda
##isesc
băga
##º
##liza
chem
##star
„to
«c
nesfâr
mus
##ializat
înăunt
nokia
seriei
##ndare
450
solare
##ural
real,
ane
21,
ebony
câţi
##ăg
nicu
deţină
##cţia
##lag
##lău
##caţii
mincin
av
sincro
##6.
reintr
1997
româno
anc
înm
##%)
demi
##ăşi
deopar
tarifu
##area:
repeti
abdome
tron
##schi
wo
logica
##ono
##tivei
cartel
##cen
##''
tria
##uze
regine
vieți
ajut
##ându-le
tabel
doru
antich
canadi
simț
contam
ucide
ambiţi
puneți
creatu
run
bănuit
prompt
adâncu
##tional
##oto
eronat
adăugâ
porneș
neo
marcu
cip
##ltate
orice,
dre
2.0
hartă
fie,
aa
##ی
rup
sava
voteaz
cerând
baba
7-
##ller
##gur
##it-o
room
ms
păcii
șerban
draga
uscată
evreie
hidro
em
rămâi
istanb
sofist
##sten
diesel
bunăvo
##,4
xxi
prag
##inti
##eţ
##etic
olt
ficatu
doua,
alma
înveţe
##ivit
##natele
oferir
kar
reglar
##orturi
(14
##arc
jurămâ
##im,
străbă
##roi
##oritate
migran
##all
pruden
voicul
soldaţ
##c-
1.1
pirami
##5/200
platit
cheile
esenti
apasa
##ţiunilo
##gor
##zice
media,
parca
##leze
bog
blogur
##cz
“ca
trip
divină
înt
(cel
##.în
##ariul
donato
rinich
apocal
mama,
sfîntu
capcan
tim
uriașe
mentor
asambl
ridic
înv
cra
:)
##rtului
##cos
hentai
căminu
a1
caselo
unific
naște
optimă
lg
##,6
was
notat
văzut,
##п
antise
##tăţi,
laurea
##ui:
ții
sim
turnee
”b
mio
pie
excel
##hic
##nz
previo
##desc
leon
##”),
şi-l
mia
##jel
uv
seb
roşie
stând
zicând
schema
##ărul
##raturii
##ă.
##km
##-me
##tituţio
ocean
umbră
educar
##ym
##sf
pov
treize
##ă"
că-
##am,
##ical
aliat
bogăţi
sare,
3)
##lt,
bric
072
axat
hen
cred,
vreţi
org
##dez
ds
anuntu
crime
og
##t”,
##mal
unul,
flux
neaște
fran
mărci
flo
înălţa
mândru
1:
lire
##turi,
întrup
##or:
##lare,
“b
nicăie
cet
apuca
volan
kan
jertfe
(fo
##beni
(at
(sc
nostri
salubr
##aliza
##âi
lugoj
aca
##.t
i-
faimoa
living
”o
(par
„noi
epidem
coaliţ
17.
sătura
evalue
semnez
ok,
das
##pit
m-ai
ţi-a
##oci
##way
##smelor
##m-
repres
prenum
neac
##țiul
##elie
miscar
##cop
zel
prințe
cali
turnat
mehedi
##bie
lic
##iştilor
abs
mediaf
60%
sexulu
gazdă
inco
##ați-vă
sic
caietu
##sment
##alo
splend
##onalita
„du
etnogr
„au
strică
clauze
culc
(ro
macro
ruşi
sms
##l;
##tri,
garda
sud-ve
reia
judeţ
pasi
##ăn
secţii
##vie
tort
de-
##ell
apelez
pace,
##poi
de:
##lot
golf
##sity
divorț
##nți,
notele
##a/
voința
voinţa
scări
inject
miss
gal
##s),
inn
testa
hipert
##nas
umed
pură
capătă
50.000
înfric
moaște
faimos
war
grătar
simfon
have
miraco
găsea
##/2002
##ن
invada
##atiei
plănui
com(20
##noscut
maluri
lumine
##ţei,
##dre
esp
##,7
flăcăr
##țări
##ui”
##ologic
##iște
##nare,
##hol
spală
sand
achită
stația
retro
capric
##erire
fag
hur
andron
##erelor
ceh
(ac
##lător
“mi
fixare
apleca
şi-ar
kra
mi-o
silit
hans
##ill
chei
fractu
##ntea
beta
grec
18:
acord,
##noa
##ring
uși
ong
ziua,
butoan
cm,
##vele
##fre
„me
ecrane
ultim
##tei,
mas
cun
secuie
##forma
falsif
audi
##itar
nude
pizza
bonusu
##îndu-se
##or-
vila
jur,
##nizare
sit
„su
carosa
nasc
încălț
merkel
grăbit
##vita
##cle
##vitate
##v.
##ăz
plu
##”:
grup,
(ti
##tez
##ki,
raiona
acs
burse
rating
gher
##trii
##ign
##inic
dărui
tiberi
membră
##acu
fasole
antolo
lăsate
god
floral
v-aţi
bod
sânul
ziare
vârfur
##hio
chimie
tonul
sui
u.
##rez
brun
##gie,
moc
##/2015
friday
##/2006
acidul
demite
agreme
##-b
supra
pian
##ței,
vedeam
##agen
##ul:
##onial
aleşi
deţin
grăbi
(do
ble
timiso
flirt
„vi
mancar
##a",
##lau
prind
mixt
tig
infirm
marcaj
nat
casaţi
jucari
făgăra
##poran
##rale,
##yt
volanu
unicul
bordul
epi
##gire
second
inte
rechiz
##aristic
##u’
##ativa
terasa
marte
brațel
##iscopia
##inția
poi
360
##kk
##porană
editar
##ug
220
"the
stocur
##1.1
##med
gali
raz
##pil
nc
lent
corupt
izb
10.
evul
altaru
##lta
"ne
wal
numea
„s
##ibu
viabil
făină
brațe
##/2017
##vântat
culmin
reinte
isc
arsuri
sloven
fezabi
##dictori
united
facial
coral
nu-ţi
##vine
imbuna
vama
rî
apărat
faceti
antic
usd
pasiv
imm-ur
3,5
##zatoric
măn
fast
rab
##8%
risipi
sab
md
încrez
exactă
batali
##cturare
vital
##tivi
sfe
coș
evită
##itivele
nest
##1),
##tator
simti
##lia,
##ndo
„ap
„cel
salvea
##rim
uimit
nevoiț
g)
like
stropi
##manţe
##ache
plat
pisica
##ața,
capsul
(bi
##tăţit
##ptat
orelor
vouche
ier
angele
##dro
demo
împușc
casino
##tom
##gh
##giile
##ntului,
teleko
tăia
extrat
ame
etc
##/2004
##ndența
pămînt
boa
piteșt
apus
cab
##fil
șantie
##upa
##-an
veniţi
##țate
##ε
nopţii
“un
rama
##ncu
poştal
[a
„co
fila
develo
pistol
(st
mel
leg
dog
##-6
slatin
analog
albu
##ipanțil
kha
plahot
amorti
spoved
dezleg
violet
debloc
(con
dură
##radă
irita
2020
##-lea
##cola
domest
##nal,
cald,
(dar
##lipul
mamele
risca
filmar
ss
atacă
##…”
##g.
autosp
##d-
encicl
##isti
vii,
acestă
neamur
##palii
##afiat
ski
##logic
##gere,
atracţ
citim
dri
(is
##iscop
wei
##nale,
“in
simon
alfabe
##100
##cã
##cte,
##rinzăto
fetița
dinți
ce-mi
##gin
„român
cotiza
adeseo
slăbit
##c:
##izeze
rasă
mez
##osul
##lica
vize
ferate
uns
##ceni
existâ
regi
doză
cuc
##citoare
sensur
porțil
siria
murit,
voteze
ster
##ţionat
sk
##ul-
verset
roa
##gui
scruti
##onii
4-
##upă
îngheţ
cină
##ilan
regime
ghe
##entul,
##cep
ts
vag
multin
ef
rațiun
vopsea
rute
dp
soiuri
evlavi
##itatea,
##orul,
##tch
sofia
muc
leonar
exc
uşi
soc
altii
micile
moi
focus
robi
##ни
##ăria
##tient
mediil
„ac
faze
tal
vamale
apelea
##țiunii
21:
solide
ilfov
##itoare,
ioan,
optime
##ves
##r”
situa
ăsta,
(8)
##cient
##rabile
soma
dru
“la
swi
##ipi
evreu
##de-
##nismul
băile
##-18
încît
##bli
ţinea
vector
onorat
nede
##strări
temeri
##2),
##,8
premat
aqua
##ode
##fla
hagi
##ântul
##ave
ay
văzute
troi
2019,
##puri
##\u\u\u\
arii
“t
##tc
stâng
spirid
facil
##atic,
ade
luci
postăr
##ceri
pare,
##sitate
wirele
iuliu
leader
##2.201
##7%
instag
##rica
##surilor
##oste
##mu
scutir
##hnica
subţir
localu
edilul
##coa
##ționale
dup
fetelo
neamț
trei,
milano
cy
emisă
cris
bilanț
spune-
îngreu
##lor”
propoz
##dr
##ediar
mențiu
birou,
angajă
palat
##stii
bus
intrig
meniu
##colo
pir
##cțiuni
pofta
##oti
sighet
"sfânt
audiat
raftur
lia
##olului
ţări,
##ția,
văzuse
"di
tragă
divide
(bu
clarit
sul
roti
pește
gloria
##ital
matric
rasa
##antului
##ope
nesigu
color
siluet
înarma
house
chema
duş
curric
##ubiri
##fest
1992
##oș
civic
forta
telesp
reducă
dinast
ima
justin
д
##hn
romană
##âne
hun
mt
##lile
etern
nelimi
##ei:
câinii
##orită
neînce
catali
##ics
raţiun
##adi
##şin
rugaci
hc
aparit
iii-a
##erând
cina
arome
##ăți,
tărie
coregr
##ior
batjoc
ax
facute
maxima
zvonur
dintot
manast
##andă
cori
supers
##-pa
„prin
tânăr,
##sus
##dom
rod
renaul
“ma
adjude
##ping
##nga
scutur
metale
london
"da
##(a
##-mă
prepon
(13
##aluri
afi
##apo
##ciale
##bilul
(fi
ceapa
menit
silvia
##ecu
locata
##iro
„ci
##reni
nimănu
neamţ
impart
iri
tezaur
uşurin
porțiu
apa,
##2%
habita
lab
dens
făltic
cibern
##sul,
sili
gâ
sucul
aug
monopo
##arket
blocaj
##ie-
rodica
pierzi
zidit
exi
etnie
secții
nef
bogăți
##uşi
##giri
##țui
##inar
##nuit
##г
##rtate
##pon
linkur
(as
porci
cântar
##ectator
"vi
##rontali
desf
##4.
##icatulu
algori
armele
apo
##țel
##tv
##ocu
##gentă
umeri
nedori
contai
conchi
tan
strâmt
dubla
##eme
19.
lungi,
sat,
09:
##cşi
##arele:
locui
străba
plățil
fixat
zodia
brevet
mad
canton
drama
##sese
trăia
##scul
minor
##taţii
filtra
##ndri
##istului
aroma
##ius
ziarel
##4%
##zaţiilo
siteul
oncolo
fireas
feedba
hit
brasov
##ruc
al-
##fere
începă
(sa
vin,
retrog
vascul
##ricitul
##ionantă
##tag
##țiat
22,
bucate
"te
##7-
##rdi
paracl
##ioasă
eric
bazei
agitat
ceaușe
-c
nicula
mazăre
taină
hâr
1995
##anelor
##meni
deceba
uitând
preţio
##urgi
##cani
##irea,
iuda
conspi
maz
boieri
carl
##5.
tis
##lor:
nemai
sif
##șca
camioa
rețetă
##uţional
strecu
175
întris
sărac
##ngată
ego
agerpr
hibrid
##ven
qui
ținută
hoteli
nec
sluji
##catolic
devii
și-i
bursă
sor
pop,
iordan
odihni
necula
##itor,
##/n
,,c
##erită
armeni
ușă
obiecț
##mari
„că
##pen
acuma
pm
porţil
henri
cura
##menta
vorba,
##nţelor
ric
rest,
incore
porți
delibe
##-10
##ket
##buite
neuro
farul
timid
##old
inegal
cânte
viena,
arabe
lec
albume
pre-
##ér
serv
celuil
nucleu
##gb
tristă
dezint
nasul
##nări
gorj
##ltură,
##ema
unic,
parcăr
cernău
3000
##loc
ți-ai
hr
##(c
pompe
slabi
îngeru
##lc
##uţă
##pra
croați
case,
ideale
##cot
stație
##sprezec
##lu,
cărți,
minte,
##3%
veci
stâlpi
sezon,
sa-ti
##mni
blonda
sperie
mamă,
dal
##mt
dulci
##و
solemn
im-pre
plasam
##6%
##cate,
cutii
câmpia
oraş,
simțim
justit
##jarea
1999,
bie
datei
##zz
##cule
miracu
locomo
##tionat
##pic
##-4
##mbr
lactat
funera
excent
avea,
fizici
visele
gin
##mită
divini
maia
poalel
##îna
20.
gramat
proză
alergă
plată,
nd
17:
##usi
##eală
à
făgădu
##him
fiinţa
dansur
##atice,
gat
rolulu
mass
##ean,
(11
##otice
mitolo
menire
##(1)
asistă
sinodu
##ala,
(20
sex,
##isc
moro
solulu
##doc
##9%
neutra
##sil
maximi
##of
##.v
1918,
##erizat
conta
##kan
bau
bic
liceal
gemeni
##ărit
enerva
piesei
##uiește
csu
gra
ție
ușoare
win
salată
##gel
deo
bagă
##ianu
spanie
optat
deza
##nțează
oct
##nţilor
##apte
##re”
##iară,
put
polic
sporir
zamfir
dăruie
consen
nemuri
biz
sap
iriga
jer
naiv
indien
deva
##pciune
deco
peşte
##onist
drasti
##zaţiile
(a)
iustin
##cic
nobili
##aria
aleea
flagra
##rov
cucere
##toriei
fabulo
##isul
ciocan
saudit
##-al
##naj
gata,
##oresc
##ate:
pensia
##bun
jet
intrav
gresie
bineve
câtorv
##oriul
inel
##icu
ven
caseta
##rci
rănite
mărgin
##":
vietii
ungar
lumână
##tituțio
##afi
##-ro
sed
##ona,
##tali
sever
##rc
##rite
##pr
177
stipul
refuz
mario
ch
##cioșilo
intuit
dragon
puzzle
răstig
napoca
##ţionale
##ska
jose
##rag
chirie
târgu-
cna
##maţi
triung
curăţe
##.200
##tativ
##eb
kn
metan
##trie
piețe
monaha
##?t
##ć
##4),
##qua
##ept
răz
goală
##sală
bron
argeș
##llo
încă,
##mân
rază
##alist
umilin
laude
##yan
bl.
##form
##eii
##oda
179
subscr
kir
mormin
##1-
##ria,
##idare
##lturii,
##å
##/2008
##-g
sucurs
mi-ai
good
commun
valu
##ăci
##edere
reveli
https:
alteor
##ăd
ideilo
hora
cca
met
pia
nelu
solomo
meri
epocii
##ι
##inţi
constâ
intrân
##pres
##lică
„con
##oy
##itat
##ensabil
și-n
##lier
##taj
kal
tipogr
crimee
„the
afgani
retroc
persev
amabil
3:
"să
zar
indepl
ceri
0,5
##ton,
tran
##-si
menţiu
sca
deform
##alţi
ducem
bazin
jim
##wal
##eala
tura
trăire
##nescu
orală
cin
##cioşi
##ctat
înmâna
##ortator
karl
##cro
sange
geolog
##sd
gul
##5),
veacul
##és
##ătatea
##sări
uefa
##uă,
##co-
##natorul
agresa
nuc
compas
##zată,
minier
luxemb
fetei
son
conc
##.00
filo
##heli
mâ
##igații
"ar
##lex
iii-le
##iind
„ra
nicule
##ch,
fecior
##tă:
networ
1500
lunca
fmi
deta
##tus
crescâ
razele
“g
tat
abuzul
##eran
diviza
multif
##rații
pardos
##ându-și
##du-le
arunce
##iele
kor
##inţelor
antice
##pere
##valoare
##far
arabi
##vi,
dorul
iniţie
țintă
tensio
##bon
mire
##rba
impeca
amânar
uman,
sci
gem
asume
banal
##feri
subcon
(su
ire
##1%
unesco
popovi
pha
##ultural
îmb
visat
jen
ser
demis
##moni
fiziol
##tară,
##pti
##cov
##ier,
##ibile,
cen
2014-2
##sha
etaje
##ás
raul
emi
normă
ținutu
##urați
##cur
vederi
##hete
##ndentă
##narii
##fici
##rind
„sa
înstră
##xuali
bah
dating
##idat
vechii
asuma
##ania
rezili
degust
##sho
une
tutun
felix
verteb
plasar
m-ar
##.b
lăsată
##rii:
##ize
white
##um,
##cast
##pali
rochia
cofina
(%)
##kov
##inii
iubite
##neri
plăţi
afişat
huawei
„at
beli
pașii
dându-
notori
##erial
cardin
ziaris
excesu
urinar
formez
crud
##iți,
chel
solidă
da’
zăpada
fraţi
ample
tăcut
##lb
cool
##gal
scienc
dorm
stăril
##erg
##oze
##ée
##ioa
linist
costat
semnea
morali
spălăt
pești
##-sa
gau
##ciune
ev
##-do
##/www.
promoţ
1991
rugămi
plati
##zon
slo
long
sep,
rio
ipotec
păreau
grâu
##-co
##ulară
##zl
##eanul
înălța
school
metalu
lunară
cucu
##.de
##erapie
##abilă,
##د
##ionarea
##jelor
champi
poștal
##sități
##md
audiov
##oria
vestic
potent
wi
înghes
”de
negust
##rap
audă
##-li
м
##ți-
disney
chan
gazeta
##ît
##lli
6-
1%
##mine
truc
flacăr
##stului
##heri
mm,
alti
reuşes
##4/200
##otic
parul
old
well
au,
nutrie
##d)
umor
revede
##rce
ticălo
sinoni
##-19
##det
râde
plimb
însu
"pe
stelel
dorint
presăr
grave,
inflaț
reumat
pieţel
##tanţă
##măn
##ecția
dulcea
ajuns,
##icării
scumpi
erou
##utiv
##oliei
rit
centim
##inire
"g
distre
##narul
cognit
##rep
lep
1.500
petrom
nu-s
corint
borcan
##opo
mioven
##nb
euro/
##inul
##arii,
##liu,
pertur
tut
rară
"s
##itere
relans
simţ
prânz
nepre
listei
24,
"li
##dl
îmbrăţ
##mând
predă
globul
5000
divorţ
##ziune,
hand
108
##imp
catife
##râ
înviat
##cțiunil
i-ai
##f)
##utice
danez
(ioan
asumar
hum
bin
107
garaj
##ón
##aru,
”p
##,c
##exi
tân
##hone-ur
##eth
##le”
toarnă
240
și-o
sucuri
amplă
lit
spația
bas
pas,
##urător
(fără
##-ţi
##-di
tainel
##elic
înfrum
##rni
vera
poata
##t),
bene
##suri,
##istică
##atu
cafea,
inci
##zătoare
dej
30.000
gas
“pe
cinciz
artiza
4-5
jiu
##pto
decern
debute
rh
##nav
##fl
sultan
##geți
##eriri
##tot
##3),
##ł
art.3
##sta,
##culos
##giul
parazi
etică
cană
##ity
lisabo
##lp
rein
##aic
##nist
##tarea,
##ptate
fixă
ada
prestă
doream
##tente
pam
iarba
pumn
lăudat
##wo
mexica
pătraț
hiroto
##ziţii
##yc
arcul
##ür
migraț
ine
lazăr,
tapet
demont
bănuie
it,
vouă
rodi
defens
răscum
(pi
##u-le
##evi
monedă
genial
cafe
pros
exacti
harry
##eno
##buti
morţi
plecân
edi
repezi
##tale
umbla
pahare
autism
spăla
##ńi
căci,
spera
##enul
sup
prinţu
intima
##oh
edit
##act
ducând
nejust
##raţii
recure
ral
retori
vieţi
tenulu
“cu
carne,
##pați
##3.201
mov
cleric
mã
##9.
scădea
hg
##cam
had
(h
fetiș
##tată,
(mo
##uța
##igare
săr
panora
numim
##@yahoo.
stelia
alertă
230
rugby
mec
##ndru
##onica
ploaia
pascal
##diu
detoxi
urmate
împuşc
##.i
##idul
##eraţi
liniei
„pi
viii-a
castra
rezidu
streco
##economi
##minare
##lus
glorie
predea
gli
săpun
##pta
##rant,
barca
1994
role
vrăjma
##tric
##s”,
##riat
„gr
ating
mb
cala
##.c
brâncu
vinulu
(n
învinu
vaci
pat,
ili
##ness
editia
pantel
denunţ
uiți
iubită
forţat
##aștere
mărit
altăda
croito
umblă
maior
##i…
nistor
sălii
9.00
plen
mișcă
veneți
santa
cusut
rostul
##vn
##hez
##entar,
si-au
ţărilo
##ogic,
pay
##anzi
nur
blog,
fidel
ierta
13.
##țin
busuio
##i",
lama
m-aș
##tii,
turnur
poftă
##chi,
##enesc
păstrâ
carnet
part
secula
##rici
focali
##igi
##atoare,
multic
##delor
dator
##č
oh
zor
stărui
nativ
timbru
îndura
terase
##0.000
##/2009
greci
techno
##.n
##ilități
##torul,
imita
neobiș
##uță
##tuţia
rival
##9.201
##arent
##che,
larg,
##ther
##zis
##tuite
rămîne
##/re
##răzi
„sp
crize
ans
##/p
##eruri
##ticile
##mn
##igaţii
balet
ref
anexei
târgur
##ml
mute
civică
135
##fect
##itii
103
##cuț
tatuaj
negre,
dorito
taine
cior
##lism
naval
##roape
##rhia
202
##enţelor
##severin
demogr
andra
##lori
panică
##ntate
##pului
work
necond
##ium
sil
înve
##f.
ouăle
oglinz
stream
##porane
sel
veacur
##noi
##-t
tipar
grinde
fic
obisnu
##-cadru
##hem
200.00
asf
##te;
prăznu
##icului
inocen
player
##tene
##terapie
##dial
panoul
stâlp
##kel
(le
##nã
##şcă
##tas
vesel
ţinutu
##rer
fină
lipseş
128
##abili
##dinea
##buind
ned
##tatorul
orgie
cut
ao
##fie,
##etăţi
gol,
răi
unchiu
##re)
##tantul
imense
asalt
##kar
travel
145
##ficării
##afe
(197
lang
marmur
foame
blu
cac
fs
caroli
dicțio
paula
dăruir
mugur
##6/200
admir
tocat
păi,
(198
##derent
trunch
luase
citată
##run
##eda
ajutăm
anulea
uşor,
„le
iarbă
învălu
brigad
##eral
numai,
sinaia
ghida
astrol
şofer
sursei
lecţii
##duri
shar
##zitatea
##tâ
nato,
##renori
oprim
road
aluatu
proc
##rtează
##ieze
##vil
pomene
coli
##turilor
isus,
##şului
##w,
scapi
##olu
##ogen
##rand
##cd
##graf
membra
tva,
##torii,
vitală
bug
"do
viețil
stati
fest
alin.1
trezeș
1.5
cablur
invizi
neavân
##iari
uriaş
scenel
##ă/
##board
armame
##ţin
##roa
coefic
creanţ
înveci
ath
schele
##jor
pata
curioa
##:2
serves
pres
posedă
esența
empati
##porani
ros
cher
etno
kam
cuanti
##”;
notari
def
grupă
##oneaza
acnee
##zime
ținem
##bis
portab
necore
kat
"ba
nimeri
3%
blânde
nevăzu
rug
##mb
prod
alecsa
crimel
trupur
##.ro/
##dere,
##.p
##deu
##gn
##ă-te
##-ho
##icia
facuta
minore
frați
##ăului
##isie
aer,
##brată
##p-
##tie,
cloud
răniţi
##-1
detrim
##ște-
arm
##cn
scolar
##uto
parcat
rotaru
bihor,
norma
##meri
râu
nepotr
##/i
##pun
##eea
viața,
bust
nisipu
##ăzi
strop
parcel
cong
tec
lector
“pro
marc
pont
licee
##bt
plăteş
##xia
grea,
109
surd
ex-
neguve
##brat
##oliu
obezit
ant
##ăve
##inu
##6.201
mili
##zata
bui
"an
«d
(fe
felii
denunț
ciocni
##u-zis
groază
carpat
##buirea
##ântat
ajutân
##gina
##căi
narcis
##sea
##nţial
##ulă
##time
indi
##0.
timiş
acompa
trezea
##vio
avuses
pil
bianca
coş
pent
oară,
##nai
##ește,
##aşterea
wr
seches
end
joseph
int
##ix
##entanti
incont
petiți
dum
##ându-ne
nein
ruleaz
analit
##iscipli
##fen
##streze
filmăr
(to
##mați
locote
așa-zi
cumpăn
##-cu
tumori
1998,
##199
##etățile
grecie
deu
ard
##listul
scenă,
remus
venus
lins
pânză
##stri
săl
##/2000
rămăse
##alismul
##ac,
magnez
ciob
light
bilanţ
andrea
filolo
##iețui
falsă
răcire
##ţate
vâr
##ânc
##i-vă
##ogice,
##ien
bătăi
"me
##rafia
litru
viseaz
necali
la:
de-ai
"to
##dite
cultel
“po
”l
beri
"su
ring
extrav
nou-
vet
alocaț
##logiei
##hl
surven
jum
iute
uitam
omagiu
„na
scan
atașat
по
##cizi
curat,
##șeni
(ta
##nati
ix
##ziuni
laşi
##dica
placul
104
dic
căilor
omenes
##rnament
##afică
oe
##inți
##lop
##neni
vip
stocul
severe
##0-
##rge
angeli
hrănit
##iect
maca
incep
##zit
##stica
şterge
##xitatea
##osa
manche
asp
##peri
14.
merc
seta
aurul
##lai
index
adaugi
##tația
##iana
rus,
##/o
##ool
sky
meleag
##/de
##.md
„no
creând
leasin
banat
##lul,
viii
foşti
prinse
avortu
care-
##grafie
devene
omega
urmă)
filme,
sv
redacț
neurol
lauda
fantom
fetițe
dolj
##ffe
##trate
##r),
mureș,
că:
##nităţi
##igen
ezita
infl
liceu,
toți,
căp
văr
babe
:))
##yr
analis
##ita,
##dori
aneste
botani
stimat
ins
rei
prețui
cep
monogr
##ăc
șefii
##orate
arătăm
##anilor
zis,
ursul
##ors
anne
##5.201
##:00
##uita
webcam
##nism
menaje
##ago
penetr
##sig
stor
disfun
„si
##imentar
##ativă,
aiurea
wan
egiptu
postal
##tatoare
hrăni
##mului,
ez
phil
##barea
##ărat
slăbe
refăcu
meșter
##rata
print
ader
##yp
tulpin
1200
basm
loturi
vini
amateu
over
##âng
acută
##uieşte
turda
emo
mini-
”nu
eugeni
fumatu
ep
##le-
add
aburi
##te”
țigări
##eriate
„or
##-no
##ntală
vasele
baptis
neb
##re-ul
##iție,
##oara,
reg
obama
nepotu
sad
##yd
anatom
situri
fus
##tti
„tu
fumat
##d:
ny
ere
cărtur
##ding
##jos
alerg
măre
eseu
##cioşii
[i
levi
got
(b)
##pes
într-
fere
cîştig
aromă
ratei
##ășit
##eş
mihai,
balanț
fraze
corp,
bul
şerban
scorpi
teatre
congel
achite
„sc
repu
„cum
zică
re-
reda
##listi
minți
ancora
##lectric
sălile
176
staţia
etnice
##comp
how
##tp
##iem
țărani
nativi
decese
animaț
##uală,
emoție
iernii
##ei”
dub
astă
dusă
fatal
some
aparti
pant
##ntează
spulbe
sodiu
ambien
duel
martur
##9/200
##cht
##hes
berg
holoca
coaste
înmulţ
[]
##cționar
##oma
##țiunilo
intoxi
##tală
luptă,
cauți
stu
«a
cursan
fraude
ferma
##nţi,
alfa
##6),
##/2001
##ajelor
##bur
gran
##ãr
eroi
##reg
donaţi
##cho
înc
eroii
nico
urce
sfi
mită
##uar
##cienilo
##äƒ
șoseau
relaxe
cantem
##atică,
primiț
##zar
##usul
mati
emiten
(sec
##oarelor
##ses
rivali
##entru
lăuntr
doriti
îna
aug,
##mes
##dge
manuel
pân
##tismul
aman
##kr
week-e
induce
vita
pec
luc
kiev
hall
fiică
trump,
##direa
zahari
cicatr
rețeta
”c
##em,
##ziții
##mel
wi-fi
##cata
„mai
##aşul
savura
minimi
pip
picat
rămasă
iii,
##hie,
nopți
urmați
teo
##tio
meritu
##ilia
„pu
stereo
##lității
sărat
marg
seo
##-up
gineco
2-
sangui
##nere
retur
##ong
##ulea
humani
htc
elen
mie,
##raf
umană,
slot
telesc
pmp
##toreasc
avute
lasă-
##rinse
##ges
colin
##ânz
##icate,
##uctii
##ia)
țineți
unii,
##pot
spatii
"si
##pas
căr
avocaţ
##arm
##indu-
##ford
"sa
trupă
anverg
##soare
armat
precau
##oth
asu
##9/201
fluier
##ăti
pleci
dobre
ase
153
##te.
ce-am
##sche
##căn
##ut-o
##ndu-l
valul
neamț,
device
(30
patruz
made
##tec
##rezece
furtul
esență
##nata
##toc
##enie
radio,
altei
ţărani
ici
"ac
##ăie
muzee
făcăto
##rate,
auzim
loiali
tămădu
boi
##&period
165
##ţia,
eb
„an
##onă
##.o
igieni
gardă
body
remis
redacţ
blând
##dis
viaţa,
şantie
##lien
##cți
oara
dorind
prefac
##cțiile
reconf
##b)
##7),
aratat
ture
bârlad
„fe
ty
##re.
##nica
##ega
##cială
tutori
eliade
colțur
sublim
lag
ipocri
hotel,
##nter
basesc
gut
##ăru
##lati
inimi
mergeț
comori
raze
##hiul
111
##elică
lățime
„ră
moşi
##zatori
##jur
legiui
##unci
##n”
rusesc
submin
post,
##8),
##mental
##cara
avut,
eh
##nad
juri
confed
„mihai
##niu
serghe
14:
##gio
ist
să-
ferit
genuri
come
##ctori
artere
fluxur
zice:
pandur
mr
fructu
##enească
##end
umanis
##pera
106
clujea
redeve
costis
(be
##rie:
##ozit
lucru:
pass
măi
ho
##șor
c-a
silico
pacifi
hiv
coste
##ceşti
cou
zeu
lansez
amazon
furie
baie,
1997,
lapte,
adâncă
reală,
pom
##sens
xnxx
adune
explod
blaj
(matei
##7/200
ideii
thi
puneri
##sării
şi-
gardul
1940
micii
pvc
renunt
pensul
pornea
fig
prover
deasem
îndu
##abilită
avânt
##ws
supras
##hicul
##eşte,
rul
##ш
avem,
violat
##то
căutaț
măcina
colizi
##ini,
##nzător
«s
spusel
turci
##-j
hardwa
##-ce
##etului
##asmul
ţie
##atate
##onare,
##/2016
turc
##nita
play-o
"lu
ne-
înmulț
mirela
s.r.l.
mars
##ت
dele
##toreşti
##ât,
##uc,
##erin
incear
rusu
##idant
chinei
episto
vir
nt
estoni
##icesc
##s/
vultur
text,
mae
floric
“do
scepti
##itudini
##aseră
”v
turnu
cozi
dădeau
##mpe
plămân
gandes
vecin
##ratori
toţi,
##x-
corido
enc
##lf
##clu
mereu,
##ogiilor
##ologii
retrim
terra
ghinio
plagia
știril
##ń
lap
##ționar
aplaud
##aţa,
verii
ascend
moși
pitore
##5-
vagoan
sfinti
##truc
##lov
palme
##vist
iov
sis
menită
ajunul
vs
şi-i
rig
##ugh
##uga
##mac
frigul
##o.
urss
parent
ronald
##-lu
roland
grele,
##taţia
##tabilă
web,
avînd
„st
##si,
a-
dob
##noase
##u-ne
##tine
sari
muş
dinţi
##ației,
##timente
fier,
garson
##rtă
grasim
##rturi
##imon
hei
placer
##2/
neaşte
salt
saci
bour
18.
iranul
raft
iesit
pli
stareț
arogan
pate
ker
des,
cus
platon
cumint
„acest
ky
putin,
noroi
sărace
mihăil
##tual
##tatilor
##nl
văzut-
kom
ființa
stilis
23,
##țământu
tră
ocna
##voltare
tam
##ben
uşă
roll
##toresc
țăr
deli
##ij
așa-nu
##9),
inimă,
adun
##rr
înse
(p.
așezăm
pulmon
pala
ridico
monta
l'
1996,
(bo
mintal
pel
##gență
dil
repo
gang
anexă
trecus
sfinţe
##oză
toxine
plasea
##uit,
senin
opun
aduci
##iul,
##terul
mata
##p)
calul
blonde
(du
jertfa
##erb
vizând
comoar
##zează,
##așul
pac
##ştea
stareţ
umorul
touch
##vator
asadar
##omie
aliați
##ularită
##eto
trendu
scapa
ileana
##nant
trezir
fisier
zac
spion
##4.201
rusă,
##prezece
uitaţi
sima
prun
venera
fraged
nis
(25
prezum
##entaţi
##ciarilo
mom
notă:
ascu
sali
bart
##tos
virus
12.
pror
lee
##v-
căderi
pildă
##well
conexe
##igur
##șarea
tie
cămin
decid
\\
belaru
##ul"
spumă
prep
miel
##grad
dragoş
gt
##sol
vast
xviii-
care-ș
##copi
artelo
##v)
##egi
deștep
mâner
##guri
rosu
repet
igienă
ap.
voit
artrit
##2018
arg
stol
răpit
armelo
##atei
neagu
fireșt
oferea
into
trio
lecție
ast
sortim
zinc
pub
uniri
oro
##ișul
gps
1.3
##hd
caza
##sati
15.
necred
scânte
##ndenței
robust
folie
capat
bang
##etea
sertar
cronol
zugrăv
orb
gif
##ctural
gab
8-
str
agreso
##etru
##3/200
##ail
sz
##ngă
soții
##ann
ciclis
##b-
trif
(să
astral
foto:
reali
##nj
toa
tarziu
##ţionate
„va
scal
roș
„mu
ţigări
perver
macove
##uț
hid
##nac
cernea
##ibili
gândin
1-0
##lung
##cată,
dădu
##inirii
-s
prut
tratez
##-com
faianț
colon
uriașă
targu
figură
##tuită
##tru,
luam
căsnic
15.000
stelei
franţe
orban
bp
ceapă
petro
##gerile
inflaţ
##cla
damian
vasul
##r"
##cei
rareor
voin
esca
dinti
cro
turce
stem
punct,
săp
##oiu,
capodo
aco
dim
dick
##hul
##ul)
garnit
##rşit
ano
"este
divine
sche
##oid
(sub
raci
omul,
kara
155
##re;
mesele
##tern
##lismulu
##vol
gogo
##mări
înfi
(21
##tuţiei
"al
##ρ
share
infuzi
##-k
zidul
vatica
##nean
“co
##6-
papu
##entaril
trud
##ută,
##test
stresa
"sp
taxime
gelu
##-7
preacu
##atibili
##icațiil
i)
afișar
##aba
expulz
ironic
roger
(ev
##ându-şi
fon
dezact
##pea
baruri
##800
1-1
sch
celsiu
şansel
reiter
##zati
##tele,
##tezi
anatol
alearg
##-c
##şte-
fruct
user
trezor
vraj
tube
foculu
inc
solară
jura
stick
##/2005
##iţa,
depo
(no
##cativ
pr.
magie
abe
ive
împă
eng
##nen
coafur
##olii
##emie
##ogiile
royal
însoțe
egida
cur
4.000
muşchi
##tățit
##cus
##je,
groazn
##/4
inta
##nismulu
munca,
ca-n
bej
##-so
visuri
ang
##l”,
##fiei
(“
(poezi
##pati
##xx
grav,
intotd
mituri
##hid
altuia
press
adora
##rt,
gil
avansu
##iţi,
zahăr,
##ului”
##oş
bebe
tes
termo
baieti
aj
reu
dem
cubi
##/6
##ter,
##ne:
##bro
pungi
##g)
##oul
stein
„uni
cautat
amant
cromat
vedea,
inele
gră
accize
iona
ini
tîrgu
casa,
staţie
goli
jurisd
răniți
nim
scoasă
##ăit
##ciarul
“se
plecăm
fluviu
agrava
vastă
(or
noctur
##ând-o
porţi
„când
##ședinte
##tuție
vești
penisu
căt
##tizat
(foto)
afisat
ree
##j)
spray
brătia
##vr
provid
##oga
##cri
##ificate
tomis
monden
rum
down
##-z
precar
##-ta
inchir
1993
nectar
00:
oase
##ofi
-p
ruptur
23:
fax
##aste
##ual,
##pment
##sr
a-si
vinovă
neîntr
petra
formă,
aripil
##rafice
##ia:
versat
avize
repet,
custod
##zorul
##orc
ud
„z
pavel,
pasa
exo
violon
sarea
populi
musta
##activ
păcăli
fut
##oso
##iet
coborî
pastel
vecine
beți
make
mali
1991,
cununi
tits
minţii
##toarelo
timo
##ialului
ăştia
ll
aci
about
##reș
mîn
noroc,
##ucții,
comita
eroul
siret
##‐
nau
cure
##.f
##k-
relevă
circ
omogen
##tantulu
tatal
opreşt
micuț
impera
##deți
nobil
serafi
gasesc
##ița,
##dim
##hiv
radar
volksw
pizda
##istic
furi
##-ve
##viu
fil
trădar
##u\u\u\u
##tățire
##orm
##/2018
##she
inacce
apetit
şefulu
omagia
119
meșteș
iubea
22.
##ștea
##nun
dete
indign
##zut
brat
supără
##tuţie
##pată
##rto
##versat
##cău
permiț
desc
bombă
gustoa
##,00
groase
cim
suf
înaltu
notabi
baby
##trarea
##jit
##ner,
mixte
##.h
vie,
,,a
##țo
sărut
muzeel
##lară
suprim
##itic
##3;
##denți
înalt,
"fa
##gene
neco
cenacl
##….
##ape
##ā
##rofe
nervoa
##-la
##acul
##fr
milo
toxic
sere
carava
campus
turt
##7.201
##nire
scheng
##itățile
palma
nr.6
barr
„av
spuneţ
mutu
(mar
##dării
pasaje
##arti
uite,
##l),
##nst
fior
##fra
wifi
primor
supă
"pre
(car
"eu
##uza
##străril
tart
##utic
reale,
##ovici,
##ej
cast
disco
##gg
plumb
taur
##cea,
reţete
bunei
##mf
##pet
hale
hus
braţel
balsam
tope
orbită
pit
îndulc
cerute
etc.
##tibile
##ologi
emag
##-w
sh
rot
impusă
(br
pakist
grabă
##cări,
plug
buchar
##1/
haina
esenţa
colege
##ologia
nevoiţ
hy
pauza
fem
abdomi
##inian
din:
„tra
wie
750
story
##niuc
##sant,
key
bunătă
oaspet
##(i
##teci
gheață
bătea
##sau
infilt
clocot
grei
##liștilo
123
##gită
1,3
„fi
tasta
som
polul
costac
ascuți
apei,
##τ
borde
##le)
rosti
##hă
laturi
##orări
##trată
hil
##idă
topit
##dera
(chiar
##ionante
desp
##-su
##ăţ
##ript
braţe
neuita
##elii
alocur
##unc
infr
ris
[c
##ique
adeziv
abr
izbit
##ează-
nazist
##:3
-d
duca
epic
##ensiune
învăț
neutr
curăță
##rire
redă
kur
##ștri
wild
infa
puf
otrăvi
calibr
fili
25,
##torești
##ltu
sotul
porţiu
ieşea
fro
##ţui
coca
broker
așezar
##-5
##vre
dorel
party
##uctiv
##inește
mureş,
lilian
##izați
ţesutu
curţi
boabe
##2/200
șoc
##onali
m)
##ao
logic
##atoarel
„com
piedic
vu
sacru
mierea
soţie
##ruri
pașapo
1.4
fuga
intim
##ţeles
wolf
##tnic
imbrac
mona
age
oz
(des
##asul
jane
gadget
##xon
##tac
##ilo
1944
19:
##ondent
##pid
sală,
##./
roșu,
##eat
dad
##zor,
##xo
arsena
##ő
(w
„câ
turcie
##tatari
dacă-
##ri)
##lizări
sclipi
rucsac
##acest
##vra
sose
pigmen
glande
##egru
##·
aradul
##şarea
##cenţi
reproș
aflam
sint
laolal
nica
##ianți
vinere
revărs
repro
##eplica
maroc
##nger
verzi,
##trans
homo
##iții,
cuţit
mes
##fol
mariei
premer
variaț
##odă
##eres
***
##tiuni
##/t
ficat
##ecţia
sei
20:
învest
tablă
chiar,
”g
kw
busty
##i...
instig
veac
##3/
##rid
tuse
înveți
pasaju
##eru
ced
gh
voicu
buli
##/u
lux,
remorc
ns
##ali,
ipad
primav
subspe
"dr
sete
(fr
##sitățil
##rest
prelev
00:00r
unge
discou
##lă:
oţel
##afii,
##jut
##here
pea
oli
frf
bay
##înă
lipi
advent
hell
mozaic
decidă
deprec
domnea
##citor
şi-n
anglie
##șo
împrăș
##iente:
faci,
"sunt
##sari
##ions
##dol
paşapo
##5/
##ming
izo
dat-o
exclam
banii,
##nțiale
timote
##/ca
hcl
##isia
cis
bălți
##/2014
##unerea
##hiculul
ful
fiicei
place,
##umă
loteri
muzeal
logodn
cita
144
##renor
banc
##oi,
scad
##-9
##ţo
low
lis
##tească
purce
"u
super-
asum
##ințat
##iin
pdf
a3
##amo
infi
medgid
ocoli
du-te
escala
##îni
sem
auzea
„di
panou
india,
şefi
##yu
porecl
##ition
fit
##8/200
##rou
##intă,
strâmb
plural
moaşte
trucur
înspăi
kremli
##uns
aşa-zi
75%
pustie
tg
##dând
2-1
##țând
##uind
##uate
##meriei
avu
orbi
eroril
simtit
##rins
##cau
apusen
mode
boteză
##vas
##gicale
##acial
legal,
„as
degene
a-ţi
##ilit
servea
##teşte
că-l
##rnă
##ns,
##-fi
##eliei
(ci
##tuire
##bank
tina
estic
(au
mesei
dotată
reb
##orează
soț
ira
т
meli
##t"
ambian
emanue
##gului
etnică
##él
cărţi,
##deo
untul
##gi,
2.1
##ntin,
##gaz
capac
##afie,
(inter
conte
casato
##mc
tainic
kogăln
pdl,
săpat
icoană
##mil
tinut
##le.
(video
sârbu
geopol
ţii
ash
pașcan
pacat
2.2
vodafo
fat
##liat
lad
(foto
şi-o
##culoasă
smântâ
##zatoare
agrega
scurs
##ionul
##ecţie
idol
muș
##nzătoar
prim-p
uta
gur
„pă
##-ra
ciment
medico
##rală,
##ast
spuma
##6/
făptur
##opedi
fermen
căz
redres
bâl
##țial
##sic
ostene
cartil
atenua
##ppe
"pa
preţui
coastă
bari
thaila
##oru
“da
##ri-
urma,
judec
recrea
bl
##udi
spiona
adina
##zeaza
##play
##icând
domini
ceresc
##cati
cire
##adr
##neu
romeo
##serv
##nder
co-
##tuale
171
##ariza
(ue)
ţu
##hil
proxim
«p
##.201
polari
antiin
umilit
ingeni
aba
gâtul
sânt
prec
main
dep
carboh
1992,
##-bo
##ör
șah
urmaşi
##amp
vapor
focşan
##abi
##șează
(9)
##pectiv
puiu
##istr
reușin
##psi
bar,
nuci
eurovi
alăpta
##ч
на
ajunga
"pentr
creări
##hide
minu
mască
##cu”
116
ava
##ĭ
blo
##nf
latine
##jd
##ilizare
crezân
toxice
casei,
##amin
„ad
haz
carr
alinie
endo
##rpi
ulei,
nes
gară
erai
##zeu
saf
citite
##ţând
##zant
”m
brexit
magnit
##inţat
##ova,
albe,
##retate
jiului
##uțe
##lni
înșela
laic
dezbră
##ра
sef
cola
gândiț
luă
stiti
pragma
first
trade
cojoca
##colele
domin
"bu
152
##dită
beauty
##ion,
sancti
galei
##scri
##enteze
##.l
serveș
##xiei
##ball
deces
joe
dif
map
##isire
##nau
doreau
inima,
(196
##erente
nara
unită
roşia
##zatoril
##uctorul
savant
##/text
mi-aș
hăr
##ous
##hm
„cred
sfere
tavă
printe
nutriţ
118
##2-
purita
##bac
lână
##iau
ui
potasi
rede
##gate
puteai
villa
oni
elefan
plasă
„car
denis
##/2013
umbre
tate
view
d,
##orea
(ga
inch
umerii
porneş
plic
navale
meta
tech
traiec
rebeli
geneva
ochii,
biruin
##buitor
##air
dorită
1,1
ceartă
##lui:
##chia
rasp
mișca
##ificată
##ctivă,
ly
##l/
(fost
pe4
mik
17-
copiat
##,d
##sport
tăiate
colțul
##yer
mâncăm
##bot
ping
difuzo
brd
cale,
săteni
plecaț
##gența
contel
bou
tuberc
navă
##8-
##olitană
##news
inchi
atrăgă
##tări,
##kh
cupru
##tip
##adu
##.0
##şeni
gasiti
##gro
##paţi
iugosl
10.00
##onic,
ispite
gand
fră
„ga
pruncu
lepăda
##mne
austro
topic
discer
fore
brav
iad
napole
acurat
##tta
atr
regat
##te)
##data
122
cic
##-d
##acție
pustiu
fete,
##mice
##-p
poliva
##chen
„bo
smerit
##tube
##sale
cochet
gua
exacte
##stu
citiţi
uluito
uscare
piaţă,
râuril
##tuției
##nec
angel
##tățiri
„bă
ocupan
abrupt
168
brută
marfa
tărâmu
oricui
##nicie
##ientul
versan
cioloș
nr.7
##rev
##rean
##cult
fixa
cizme
ray
dei
##ille
##lab
smi
##are)
##uează
ţăr
rulare
hop
##0-1
păl
dupã
##zea
##ii”
##bea
vezic
121
mi-l
##heva
jul,
nefavo
##îns
##'a
imperf
comert
adept
șefulu
##ciu,
fostă
##…c
##manțe
asus
##itații
nu-
lanț
fair
murdăr
alexa
paza
##rui
##etice
##nik
##uis
##gru
peşti
pionie
fen
cav
anunt
##/g
varză
păr,
cash
vitrin
##niile
##iii
##eal
##onice,
##3-
##gioase
tăr
sclav
omenea
lanțul
##geni
revizi
neauto
##ua,
viu,
corabi
ambarc
##ţeles,
##nicul
fierul
##tită
vitale
„î
nuanţe
126
##/2007
##ienii
ştiu,
băd
##-199
balan
usi
omv
##ndic
soției
(uni
robot
##eng
##arn
neîncr
spore
pușcăr
vîn
##pând
##dep
ecosis
##sesc
##chie
##gas
mures
caii
4,5
penibi
##ţiat
##toa
formei
crap
noti
##verse
›
l’
înşelă
fanilo
##at)
saint-
##top
##o”
nepro
may,
insa,
,,s
##itaţii
##olă
##ăcut
nik
1994,
##pir
##ială,
##știn
pauze
umăr
plăcin
discul
piste
partiz
n-aș
meci,
durate
îmbu
(ru
}
fireşt
vand
russ
iesi
banner
##tățește
##ocasnic
insult
poa
magn
arabia
transl
totala
sep
##rnicit
##nsa
saloan
senzua
glob
##0%
fos
##én
##rmi
##cţiuni
prosta
##zio
##uma
##ange
manu
laz
##uperi
ridicâ
venită
##echi
rigid
cules
nespus
30,
##fte
a-ti
##ntată
latin
glo
117
##gicală
setat
redire
fictiv
stela
migdal
##ж
descif
##tentă
copleș
acro
##tiţi
##porn
gastri
##a-i
##lescu,
##cita
##bera
răs
evo
##inde
incurs
"fi
eterni
știind
onest
incura
##retar
sârbi
##ç
arabă
orez
sug
##ido
##ucerii
măiest
0.0
descom
avizar
arhima
rt
traine
covoar
##dente
sd
inexis
afirmâ
pul
dict
22:
cursel
grap
rotunj
marco
certa
124
##hina
paie
cazări
##013
lady
##mpl
##sla
franz
sase
împu
##-15
к
fructi
caldur
boy
##etății
deni
încetu
##xp
##tabile
numiți
##ui"
##isirea
știe,
hp
poem
fundat
rever
131
##ск
loj
anorma
##bia,
"or
##jeze
ţâ
imuno
##ţeni
##lay
##buții
bn
roi
meridi
curăţi
"sc
aluat
pianis
abur
##[1
fulgi
adv
doroho
##icat,
##iz
pers
10-15
meşteş
beach
gen,
arestă
##omul
##ю
ulcer
neted
cross
aport
gazele
cânt
##ului)
##alizată
badea
139
##wan
##rã
curi
##ștean
##ndenţa
##ipanţil
aleato
dé
bine-
ador
##aud
tapi
##-ungar
mânia
protot
161
covor
##edia,
##legi
stârne
##gani
facă,
##dou
scr
##lev
servir
altui
##sam
nead
##cci
ann
##pers
peru
dari
1945
##b.
henry
sof
golful
amo
irak
curți
caraca
##ecție
ce-o
1-3
##lite
vocal
##buitori
vara,
gale
##1/200
##lr
##smul,
2/
uli
##șcu
răcori
„ex
suta
gărzii
##r;
bântui
blugi
umărul
dulce,
##i-m
##tinu
îndo
limpez
##rudență
ses
##ăturile
##gic,
inse
1940,
##g-
nunți
manich
##lem
albani
##s.ro
induc
mătase
inovaţ
conv
vecinu
##/in
pure
##-da
##şcu
##âl
vieţui
cosma
gai
##pos
incomo
”i
casați
##ل
##oper
##u-și
##tirea
##n"
relua
microc
sesize
granit
##.”,
##șcă
##mera
##tină
##ţiul
##grama
mary
##oale
ino
##?r
mih
ene
##,a
##ortate
##ădui
înde
nedete
“ne
##ziunii
curs,
curgă
##wood
##ormată
dex
deskto
##ternic
auzind
amb
##nitățil
pene
deca
##lect
(ge
##asem
know
word
##nţează
bull
bert
od
ilicit
mişcă
nr.9
inalta
asteap
##sing
##inele
a.c.
"ad
##tiilor
##bilit
##mpa
screen
greva
##ibil,
imm
cincil
##.acest
meşter
miroas
##.g
„după
rentab
(22
##led
nil
infiin
arhi
(ora
##bic
mitul
sinist
concil
##tet
##gr
rapi
##sibil
pali
[2
beijin
##tite
##a…
nasa
##elle
veneţi
veghea
##umul
alter
##re-
reproş
cră
##an-
traies
cob
carta
binevo
clipul
##brului
elite
croc
state,
chinur
pep
alice
slăbir
##lim,
##ipat,
##șteni
trimiş
##rani
freca
##venţion
paznic
nepo
##gma
neapar
lans
wikipe
(ni
severă
cind
##oral
mexic
##ul.
##ln
scu
(sta
neînţe
##usti
##ulo
aplauz
porta
roșia
##itivita
amiază
138
spaţia
##zionat
fau
„el
antim
infern
##mark
ploua
anexat
decupa
asta-i
decala
##spunzăt
##clete
ți-am
urcare
ideala
##ged
căsuț
moţiun
s‑a
cămă
coro
,,p
att
cantac
dacã
40.000
ţ
seg
##etate,
##ătura
##nuri
prune
ladybo
rame
sufrag
poeme
##osti
tric
plecăr
##ronic
iurie
sălă
cuti
palmar
nev
dăn
încins
gm
##900
blat
vărsăt
țu
ignoră
cernav
eretic
##ère
deştep
##țională
îndeap
hau
##ege
##vate
basi
##ăj
##chet
moartă
aşezar
tancur
##eta,
penalt
##traj
sulf
lupul
argeş,
1995,
si-
##lete
trasat
##nind
##erarea
încunu
mobil,
##on.ro
plăţil
##imensio
reie
##verbal
12-1
luceaf
lovită
cazan
##trație
##titu
##lib
##cali
răd
0,0
caldă,
##cație
##etarilo
livra
(com
##tându-
##istria
anume:
răsfoi
suflar
trăd
revigo
podoab
năr
##rtu
insuli
##ntali
zbura
iartă
oj
gălben
celulă
afișea
admise
obțin
scuza
„ast
evi
##bus
dialec
##icație
dati
1,6
##titui
##elt
##ass
masivă
veroni
##u"
rupere
##wn
deloc,
conden
titu
##ă",
mucoas
##y”
##cai
head
neînțe
impr
##5/201
##urc
##e!
lupi
reinve
vocabu
mărimi
săc
suz
5-6
transa
pilotu
##iam
bazine
seama,
cuba
puși
bosnia
smith
gorj,
##hiat
ocup
nai
##ranț
matc
„h
##4/
##rezi
morar
enzime
viru
##box
curvă
cartu
probei
2-0
147
##8/
##nea,
##şteni
intrep
geniu
nou-nă
maur
fre
ama
ii-a,
separă
prof
##ăia
##obi
încuvi
vieţil
artile
puls
fec
##/9
##elu
##ația,
##nţarea
liniar
chris
##siu
melc
bombe
mîna
pneumo
menten
##ndu-ne
##pac
##;n
pulp
-2
##șuri
mesage
belgie
##ieţui
##politic
##orial
lud
pariu
##co,
apost
##'',
##cuţ
114
flam
##uale,
lig
fero
dulapu
##coala
ţintă
simţim
însoţe
autor,
dream
nen
ee
spat
##oxi
##te-te
sound
şefii
tînăr
##jer
##cid
grila
challe
##matica
sli
##’a
nazi
lamb
etan
##miază
de-abi
##ral,
vod
##.10
##pd
seful
dosar,
aura
arhivă
mand
##nali
##cke
stam
ușile
"cr
##genţă
uzur
kos
mora
iisus,
peria
(en
(dr
â
hm
##unem
scumpă
zg
sediil
popor,
##rtic
subsid
associ
antipa
“no
mich
cumva,
ţel
(ii
##ştri
ole
##coli
vezi,
##dru,
##rob
##ologică
săn
magia
stânci
##ţiona
##ratului
##vant
„şi
adn
##eur
baro
liceen
nervi
rele,
coni
carpaţ
##oan
presar
(z
##mot
##jare
scutit
1.6
fluctu
bid
hul
chiu
chere
##lente
##ih
apt
##lini
vrea,
raiul
h)
hidrau
cacao
decan
randul
##ndere
inve
##uzi
ghio
##licat
incet
anexe
uc
##bc
vită
dezval
##.ro:
##orim
tiga
rep
fure
##ențial
arbu
athos
149
##ecti
##dac
##tl
inefic
##spa
##cas
esenţă
papi
##ack
dăduse
bell
##hs
traiul
masacr
tava
de...
tas
##!"
roţi
capela
biliar
secu
##tatori
aseman
intoar
,,d
ile
doborâ
înșelă
gian
##anca
măl
iner
bosch
descre
zei
st.
##așa
sumar
intole
roage
reeval
vlaicu
##garea
lucia
fain
curea
##ei”,
liceel
##asc
egipt
incalz
plaje
geanta
redat
intel
east
bărb
##ciri
xii-a
pluton
mânie
erezi
mitr
mint
inalt
500.00
##replica
##ioane
milfs
aşez
##/2012
(24
##xis
##mpi
paravi
infarc
statiu
preste
##or”
vintag
##r-ul
shop
băiețe
aşeza
mami
##ticii
aram
protoi
never
cauzea
ner
eclips
##ărilor,
##dn
șor
##icare,
##rizează
garder
ias
##îndu-
129
jertfă
dantel
til
stanga
recalc
pactul
mid
frauda
spânzu
##’’
scm
poz
pofte
simone
saint
jucăm
răutat
lunar,
înno
##400
##rig
îns
ocolit
##-12
##dus
##rhului
sabin
semi-
bcr
(vo
uscat,
icr
2020,
##atibil
„ta
amster
##site
”ce
mândre
conste
holdin
umflat
##ganiza
două-t
rar,
edward
serg
##4-
atu
##ă…
apm
##ube
##eghea
now
epo
ah,
acapar
##ight
##ctului,
##asta
uzine
ecogra
##țeni
##ionali
inm
##9/
(ș
ţinută
care-ş
##inţia
runde
străbu
c-
incita
nick
(v.
listat
sambat
iubeas
##tizare
vădit
răului
căline
pîn
pard
##fili
1973
##tier
vre
nivel,
kol
mart
erasmu
turme
stru
dina
aspru
##1.0
##elice
“pri
biscui
uterin
musai
polemi
"ex
##eții
telegr
grăi
##grafia
##ctic
sabia
polit
plătiț
pe-a
##laţi
comuta
beţi
##ulescu
##ctive,
bradul
impar
astr
##ı
înte
legea,
shakes
furia
##mont
micșor
data,
aditiv
##mentale
##plo
##anții
365
##ž
##vesti
146
##iel
##rau
##ney
swa
nod
bub
##nom
intimă
grijă,
##dh
"va
##te”,
eseuri
ţip
169
haos
##-to
##tiți
elită
cern
sprint
minge
##ormi
soră
##0/
daily
(mă
lăcașu
ținte
voroni
##âm
magda
etc)
##aştere
avându
##zându-
baraju
maladi
##fiere
indr
eșecul
##igat
clipă,
nem
sirian
prolif
eforie
##pţi
##d-ul
petric
##tându-s
predec
cobora
##ía
##tografe
ateneu
aero
nr.8
aparar
##ه
##ener
fis
##stem
lou
ebraic
cură
##-ci
pese
moo
miră
auzise
veghe
##8.201
dani
mâneci
inelul
##devar
font
##r”,
aderen
##grame
##band
robu
lucrân
gum
210
ștefăn
##tanți
##manțele
##izator
bt
oasele
gustat
132
chea
##tid
##hit
termop
„cl
26,
unioni
agit
him
##otul
б
viețui
##oj
primiţ
##11.201
##esa
mutări
##c),
găte
mod,
curte,
newsle
##lităţii
crunt
imn
buza
medic,
jupite
##șan
##rs,
tabu
bonuri
satura
##lurile
coe
##litati
anto
bast
faptei
##س
mestec
filant
##has
îng
mun
lili
27,
“mo
##e“,
##tutiv
podea
##mează
##tera
înjung
##riri
##pale,
##amu
159
psd-ul
epigra
demnă
##reş
terți
vis,
beni
##л
##ețele
umplu
scaden
rutina
nelega
##ebeș
psd-al
opțion
pastă
##scut,
frumoș
ruseșt
##tivelor
ni-l
##ințe,
„dar
134
robin
aminoa
ure
dorite
vi-a
##o-c
neclar
##lã
1/
exprop
##1.2018
23.
##300
pante
boris
##br
sinc
##job
dist
##plan
##icaţie
enoria
sfîrşi
chu
stephe
fiare
pier
poeţi
veheme
trib
angren
fli
coi
ruinel
radu,
##umat
point
##ltăţi
##a...
natal
minții
temut
##hing
##atici
paharu
rigoar
viktor
bib
iulius
foaia
d’
##șoara
##uperea
stima
fetita
returu
rangul
##țuri
##ozi
macron
gunoai
##tiza
săruta
##miu
##hot
migraţ
franc
noutăţ
##”-
320
##pad
reşiţa
umil
roata
##ude
##hop
adju
##știul
##rzi
##oint
##emn
151
##cioşilo
scoli
##pările
cuvioa
delect
##nată,
"so
##eza
optic
##pți
ambelo
##ville
toar
##utive
##lce
##icii,
##rinde
##ncer
##itivelo
##că:
impo
##lif
giga
##onia
jean-
##icația
ţinute
pode
deșert
ua
robine
##pis
##giilor
câmpin
ola
energy
uşoare
înşela
##ler,
##aptă
fă-
jaf
3/
##etei
admi
##го
##eriei
”re
##zd
năvoda
codrea
##du-l
undă
mane
zgudui
încr
reco
plia
dă-i
pompa
##oc,
##0;
mah
care-m
fug
solul
##inst
viet
creăm
ciclur
##mata
##ement
prozat
lipe
șez
##ţiunile
##ățe
vic
fd
##-mu
indus
arcu
,c
wta
aro
133
##ingul
lift
cotat
##.11.201
jin
4)
”am
și:
##âmb
##eauna,
##ntaj
sînge
sno
iaurt
(pl
##şează
“te
iminen
castro
salvam
ninsor
##achi
irespo
canta
access
##tind
##sn
opteaz
164
tropic
south
situl
facea
23.0
acut
....
##tean
drog
commen
##niți
sig
hos
dance
##rești
##onarul
##câ
##rele,
medi
##ciuni
iudei
pulver
scadă
aten
136
##uos
goma
vitreg
„ro
auri
##itte
cupe
##zică
stri
rufe
capacu
resear
##ţionar
seism
113
soros
cînt
##iețuire
##/st
vite
1948
##vet
##y)
titan
##ture
fostel
##ciind
hărți
civil,
(mu
(jo
##mbat
1944,
vroia
##ntru
întîi
##ndenţei
păros
“al
space
1,8
##ui;
divulg
neobiş
##gos
connec
##fc
sufla
##misi
##ach
##al”
1,7
odată,
„bun
1971
##nește
fiu,
##rismulu
##bră
putu
derivă
pf
##tunci
tb
sufoca
dicţio
##retează
tăieri
law
##text
ursu
qu
##lou
##ţională
##omo
##neț
scenei
radiou
geantă
verdic
plop
156
##-sex-
stator
amână
"st
adaug
biruit
implin
##ăvi
##arg
stagii
hib
negat
antica
##iuc
##h-
spo
##nct
##eco
xvideo
redi
hann
d-l
##măt
vadim
##denţi
##vențion
placi
pio
mosche
##raţie
##manţa
3-
##flamato
nos
##iști,
##mbo
##omb
##at”
##rescu
##ntația
bâ
ata
##ghea
did
gavrii
##ñ
postez
lt
##işul
bage
esta
1,4
mike
contră
ofi
puneţi
exa
##ui”,
##ntară
##lum
##rk
##م
##s;
##chu
expiră
balon
îngrăd
noa
valută
##loa
diagon
selfie
blond
deturn
##ced
##ree
ghimbi
supl
plenar
sfor
reșița
##intei
convie
##icații
vi-l
probat
dul
salv
sǎ
hyper
142
##exp
resimt
popas
##2.200
fumul
baroc
##lați
0,1
haideț
nie
##els
dubai
deterg
bară
##lti
##gare
##rnia
bizar
30-
##ctivele
moara
##icati
##ciei
lesne
##trui
urne
##.30
suscep
cort
loto
acatis
(3),
tirasp
sejuru
exe
##fm
tarii
doarme
“să
bănci,
viscol
”pe
unilat
fascis
2-a
1964
##nală,
11.00
(discu
##linare
##atului,
păun
##rbi
samuel
gaming
##nţeni
##sive
##ionar
forul
inconș
cati
##ril
spuna
singul
melanc
masei
##palelor
1983
##ead
##ropi
țesătu
vanili
înjură
frunta
nelegi
gp
##apă
zahar
3-a
##aze
zalău
##răzii
##rima
##iara
##das
aut
##ctant
aste
##rșit
anexel
gropi
##day
##atri
uimire
##ţuit
##urit
##iev
profeţ
metodi
neconf
neamţ,
07:
onora
articl
lian
iertat
partne
##ãm
pârâul
##muri
clin
##ilităţi
majest
vietna
pietri
brusc,
ştiind
##ceanu
ţinem
pătraţ
"au
bdsm
trimiș
orn
îndele
cosmo
##arență
râvn
eşec
contor
apasă
(artic
sterli
bali
giu
dav
apăsat
“vi
fas
##-ga
##t/
soţii
cortul
romanc
##ntizare
camara
##atorii,
copou
203
oil
##ны
"mar
year
##odo
xvi-le
nopti
cedo
modula
##alia,
##itiile
zam
##acc
expo
clon
expone
##mat,
reexam
manda
hara
desenu
##lator
##999
##ciunea
sezoan
##aur
mărcii
zonal
fațad
neal
munțil
##020
tencui
clasă,
roade
##bou
crează
##fac
încălţ
##mone
ecuați
##mării
croat
magică
frunză
apri
##heni
văii
stup
rah
ascunz
##u-mă
##ndu-le
încruc
stro
s.a.,
seamă,
##icol
code
##ict
tunelu
obscur
fân
aloe
##style
sc.
găuri
căști
știau
##uzino
varia
avizel
lil
div
săracă
dramă
##a.,
revita
##ieri,
perle
pand
regii
livrea
fermit
137
##κ
##rit,
##nizat
agreat
##nual
paria
geamul
ent
arat
candel
urmași
pon
"bi
joasă
gheaţă
club,
zvon
vibraţ
vesti
##nelor,
hab
##7;
##-te,
trop
fred
brio
##nza
psiho
##.“
așez
nicoli
##re"
##ear
cani
1980
##ς
##grafic
sna
paști
health
##țesc
putine
olt,
1900
148
minţi
flota
strang
##peare
britis
##-gr
##traliza
##tibili
carica
î.
dece
way
statal
##/se
2007-2
##dual,
tipare
tanar
somn,
hart
cvorum
"no
nocive
sarac
##mann
sprânc
##ãri
lenin
steve
ritmur
croaţi
voiau
dan,
pitic
„ion
##ments
rural,
##eas
##l"
pântec
indepa
dezg
apuc
##spi
##wei
ocupăr
etic
4:
vagin
foto)
##urii,
cabana
zboară
echi
împrăş
##blic
##gări
încase
##()
##.in
folk
##6.0
„dec
##ndent,
foști
##,0
##ţel
##tle
##cr
șomaju
hobby
wat
alia
sob
cantin
158
iarna,
##bita
narati
##aut
sorb
damasc
căciul
ușura
expusă
”r
##ntări
##utor
##tho
zăc
gabi
##isitor
water
tarom
##ricitat
28,
##ioniste
##onal,
##sante,
##ităţile
testez
##strați
countr
(af
arestu
feli
##kg
##ziți
sort
oft
haluci
boca
##urătoar
dezide
##le;
fetiţa
bern
##uj
##u-şi
##rca,
formân
mingi
sîntem
plouă
jucând
găti
capi
lind
domină
##știului
##ngat
##lor)
##iabil
invenț
##a-t
ioachi
live,
câinil
avort
##orie,
tură
01.0
cub
##păr
##erilor,
(col
##n),
invi
##eiesc
(î
##reb
siria,
rca
"dacă
șut
##le"
##berg,
deg
palas
##.da
##trații
(între
##ădi
##onați
retra
longev
ghil
(na
poseda
bem
##u),
##lizează
erdoga
clean
##ecți
onorar
povara
ghin
##atilor
##scripți
##sitar,
preval
pertin
zic,
santi
mam
adiace
kin
jucate
##taneu
senat,
reteta
##ograf
„t
galaxi
##ntiv
teofan
##sv
„cre
stele,
podulu
##icești
##ein
slujea
shu
ment
inser
"cel
##**
urez
##uraţi
(op
##miei
bolo
##mile
focșan
##pani
aviați
а
neuron
##oni,
decone
##ţesc
##gari
”ca
##nești
boob
plajă,
berc
##.net
doliu
furnic
##ocia
„bi
##milor
8:
(ps
##gne
finit
belgra
reprim
radiaț
auster
pieţe
##eac
dd
ţi-ai
ştiau
##bele
##lizării
1967
after
##nși
##rect
##ál
##cționat
psoria
##-ad
preleg
băt
##ulum
##rari
sărman
salvaț
##sivă
##scuți
cămine
saturn
uda
turcii
fetish
fiindu
##imul
seduc
găr
##erc
scazut
apăr
##tizarea
sanse
pale
gardur
##ucțiilo
##vir
europă
##-tr
opin
munți
alge
##kes
rotar
143
vit
pase
clor
mani
auditu
\u
##an”
etapă,
##lării
paşti
##aturilo
runda
băneas
##tum
who
girl
172
##9-
colţur
##ubire
##ineşte
sov
mărcil
dîn
##mbu
vitr
numiţi
##social
stăpîn
că-mi
25-
##ului;
plina
hero
hore
îmbarc
(tra
##gda
prinsă
(unde
##4/201
prevăd
##mînt
altera
##nezi
foto,
##înc
band
nemi
frică,
horn
##stratie
casier
kun
drojdi
diagra
##3/201
##olic
##logii
bele
cockta
catehe
autout
##joase
##cţiunil
##aţiei,
lobby
odihna
alerge
20.0
haine,
tricot
croi
nepri
##arului,
##het
##nne
##rane
w.
##ezi,
1965
smuls
##pei
##iat,
##-11
ţig
##hos
##re”,
ha,
putinţ
21.
burghe
acusti
iluzii
împ
neprih
lanţul
guri
##esta
aron
kg,
cotei
soţ
sera
##nv
##izat,
ospita
marcan
##rizată
##600
##entr
ştie,
regie
powere
##nh
redare
auzul
pava
nepoat
david,
zim
tribur
antig
##ţi-
anre
174
calcar
sting
sansa
antia
##rar
fee
călca
bula
trăind
gunoiu
joacă,
ceaiur
carpaț
##aţi-vă
câ
##ofer
țel
ideali
peters
păcat,
cativa
##odată
trezeş
naș
##ăst
##rete
tururi
##ӑ
furtur
##întâlni
polen
##inţitul
##ifer
##nțarea
##miază,
pauză,
mou
exersa
atâția
holul
##-pi
##retul
înghit
##ișa
##ăriile
corona
##…a
“u
127
##nicia
##timent
##sticare
plătim
fed
căpete
aștern
##j.
idee,
nechi
gla
coajă
##rse
##mbl
sâ
##operi
diverg
12-
##lk
isteri
roboti
recree
##igurare
pasta
iris
gură,
##mber
##gl
ovar
##lua
neschi
##cești
zan
hallow
##-17
##stant
##dp
pleoap
ill
culise
bitcoi
avraam
##stărilo
##nus
dona
bab
"du
##duali
romei
intact
hill
270
##țirea
„sunte
##para
##seaza
excede
##onez
tuns
ostil
fraţil
##sticat
vibrat
coșul
##ado
radiat
##video
##zã
obseda
(23
chemaț
mişca
cehă
„w
eti
doro
dealer
08:
10:00
##post
maric
citeaz
##litic
parisu
(comp
##ițional
lazar
grupat
bătrîn
inchid
cercei
(eu
##7/201
##renț
##mol
învata
nal
cau
d'
##rut
imnul
15-
repe
dobo
zeul
labiri
ix-a
canon
##al)
##nin
##you
bancno
astm
răută
vărsat
epoci
fam
##;i
##ucției
caruia
##iss
tatăl,
curăţă
rusali
iur
pref
##sky
night
jun,
apro
##anţii
insi
fata,
dir
##ery
ging
căm
##(1
##nera
##e“
expu
20-2
##gno
##ego
##abr
tâmplă
naiba
gan
##ţial
##eie
indo
price
##sitară
cărnii
resimț
bolt
##najul
tori
##oane,
prop
copleş
650
##ry,
glucoz
ajunsă
##logy
jackso
masaju
##rame
pofti
##vatori
##ulul
##eiască
ross
daunel
##ltori
rome
1993,
##icie
neajun
cântân
bănui
##rafic
puiul
##uman
tob
grantu
##2/201
diz
aju
##itati
gandi
bursel
banci
româna
pastre
##-br
pele
##lean
##mun
vene
numita
debarc
##iceşti
##chim
"vo
1970
roadel
miez
##-fa
##toriu,
##-car
sze
boia
temple
distor
burg
bacau
##erenț
##entei
##istice
##-on
tonuri
afiș
##estabil
negoi
gălă
(ori
descu
ataşat
(perso
##zt
"com
##icaţia
##sație
recu
##curs
x,
scoţi
bomboa
##uţ
##rz
”cu
##name
nedume
metro
meti
##ish
afișa
plângă
malt
lecţie
duo
##ntarul
##inară
##entale,
##mbă
##uiți
##rope
##iste,
##yle
vaselo
mananc
argil
cerint
##spo
##card
editie
sporur
raț
frânt
hon
dormea
awards
2.3
(da
##clis
##td
0-
(10)
dân
(chi
mănu
balta
##erl
„trebu
##cre
incant
julie
deşert
##ti-
##iculat
piersi
papei
munţi
##amă
nimici
##ax,
##ament,
##opa
##ei"
schiţ
##iso
kate
inconş
„str
destră
neagra
##tire
##țiunile
nera
pd-l
(ve
##uţa
născuț
revi
hemo
teroar
admin
absoar
##cultura
prot
poro
baraj
##rativ
##-în
sla
##metru
„1
happy
##tua
antir
##nche
##ipanti
##enb
anula
18.00,
##danță
zdr
atp
##țării
##nicea
www.s
liban
colib
##lio
##liştilo
rie
##pag
nopţi
bala
d-a
săgeat
##resi
„v
pasaj
##ipați
##ibila
pupi
multil
lungu
adaos
##-con
şah
ov
derulă
“c
##zoare
##iment
timiș,
medioc
cazac
##ăminte,
##ormate
##fp
mura
renașt
vibraț
multel
154
şut
ice
"ș
##are;
fai
##ract
##fis
ilo
dolj,
##?a
caș
arthur
##teaza
apara
acuza
##ject
##cturii
##uch
##retată
omeneş
itiner
înglob
gru
##u”,
##mină
##țâ
##stie
salam
răcit
vâl
sfințe
hay
##rhi
mare”
pisică
buna,
fifa
petru,
împach
##țuit
indone
##zece
cham
##neg
însufl
aflare
reîn
azot
##rabilă
criză,
##traţie
##ap,
„cine
##w-
acvati
##ânire
##meze
mirat
16-
mla
cete
4%
creta
16.
uzate
sune
##eutice
tunuri
(sp
##kl
corb
##zk
unică,
adr
##spe
codruţ
aiud
##zez
##etarulu
##xie
##eciale
letoni
##[2
##orel
disp
##stim
##omp
##imea
##eso
„const
invin
facem,
##.cu
vio
păzi
##ta-
ub
tractu
enache
##atizare
parulu
lăt
##cto
zeit
prev
obl
##trând
sexe
kri
##sităţi
treb
pot,
filipi
setea
bold
##-------
precoc
ado
suv
fraudă
##ucţiilo
vrei,
dulap
devo
##rește
##at-
frază
hidroe
febră
##ului”,
intruc
##ului-
##nicii
##inții
##anei
##ainte
capel
alocaţ
zburat
nega
leuc
##tiri
halep,
##ficați
puşi
„des
18.00
cafele
saltea
țip
aveai
##ãt
##ped
gî
##reți
##rala
eșec
0,2
##strare,
##mul,
sina
deshid
##fag
##dora
tiroid
singap
redefi
radia
făina
cateri
6.000
slotur
rime
##şef
##ale”
iară
dăr
turces
jav
##liv
##ubi
phoeni
altmin
##enești
înr
sorți
##uloz
##erupt
##tuind
##nui
##og,
##i-a
##zii,
vedeau
herman
##zb
kö
linkul
hre
##ologie,
urm
alexi
tăc
rad
##oric
##siei
kosovo
##duale,
sără
manca
##cianul
scute
marti
spiral
pierre
##rabil
cass
##-sp
start-
##ud,
ferr
##μ
tos
chilia
##reşti
turna
„pri
trăiau
##ziunile
ghicit
groapă
##ționali
amatur
anomal
##onalită
##olar
##niţi
##are-dez
hama
##hone-ul
##field
##aj,
tod
stupid
stadii
neex
deva,
2.500
mansar
trăită
sejur
iacov
atena
##vilor
##ging
fru
abu
141
##but
răspla
ling
##ciuc
##bl
balanţ
lef
iv-lea
trece,
"gr
##mitatea
rodul
##ilis
tatian
grecii
166
bogați
avanga
##,,
scăril
mișto
km/h
##olele
##legeri
preșco
280
##watch
##manta
amu
mum
inadmi
##ozitate
ramură
##psa
vodă,
##dări
wood
ua,
truf
soiul
smo
m-aş
##ibilită
juvent
apr
##/5
aliaţi
##λ
acomod
photo
pangli
##rminată
slug
polo
19.00,
##!…
##ştean
##zg
##ndu-și
toamne
##lara
##erent
poemul
use
oprea,
ținta
##nderea
##xid
înșiși
învăţ
nevr
îndes
##ui-
plăcil
k.
##abe
corobo
acco
163
bikini
anemi
a2
##tării,
##centă
coaja
puz
„s-a
##sso
##chiu
##stor
susan
##alu
##miaza
##ază-
semafo
##ie)
mouse-
173
dezbin
bârfe
glicem
disemi
sapte
rena
attila
covoru
ago
abc
##v01-00
##cţiile
revers
sinu
##omunita
##ituri
chemaţ
##țc
##ându
luis
invenţ
##actic
spermă
poluan
##me:
reglab
watch
sebeș
limit
##rgic
apia
lem
table
atârna
1950
##eței
##ratorii
numitu
##volu
roți
miile
prel
nodul
##1;
status
dell
##ârn
băn
##ă-m
semiax
##ășesc
paşii
ziceam
situ
vântur
dorit,
dg
##riț
primis
1.9
punte
##șm
exil
dărâma
11:00
##mna
ospăta
greces
##kol
##iac
##leț
##ument
##indeni,
##…)
pașnic
antene
zoolog
citez
radioa
our
##furi
##biri
cambri
##șanu
mulți,
ambigu
##erestr
jas
##cine
clan
iac
brown
rs
rani
orale
neptun
ia-
deget
##lor”,
tâmp
##kon
##estr
rundă
lumâna
fresc
mândră
ciorap
"p
uriaşe
art.4
păcătu
oficii
anan
##orte
culte
bălă
##sani
##ficat,
siberi
##fs
le-ați
emoţie
dlui
moraru
vids
geme
ședere
young
##ilul
dezm
##iţie,
α
johnso
berea
apăsaț
zahara
tabele
##inând
orl
blueto
unpr
##minte
##pe,
##uu,
##ensa
dauna
##gna
desfăc
##est,
rutină
părţii
##ya,
url
##drescu
valiz
frun
baciu
##ografia
##anc
##strând
##nicit
rănile
gherla
opel
harulu
##tatarii
##tig
«n
slu
##zile
rica
##sur
##ziţi
fina
##uali
îm
##zului
carp
##o)
##nar,
și-
leul
creezi
plecaţ
##ро
supuși
##tien
talpa
evocat
copi
##ground
##enz
wu
sri,
rem
haină
550
(ant
(28
vira
etc,
antura
(cit
mesia
netă
arăden
##centul
încotr
nano
crimei
##nciar
##hod
##df
##trei
juni
video)
păpuși
munţil
(confo
rav
##hidr
sadove
imb
##mati
260
ose
trac
dv
##ăşit
știrea
căpă
##știlor,
nemo
##ectat
pina
##9.0
parola
jun
haosul
achi
##a.ro
##loz
trus
,d
##ick
scrie,
secti
drăgu
dezmem
##lana
##bite
##narilor
##împ
jacque
bogaţi
necr
mize
##ipând
pldm
ambi
"mu
##//www.
##otă
##vani
pau
##018
##eu”
renaşt
##bd
##teți
##acerea
##ăce
numiri
brute
##&c
"car
##aja
zur
##exa
voință
##cet
trăgea
leonid
basc
baltic
##ndel
xix
cuie
##onări
drago
##manul
brigăz
dans,
##camp
insur
posted
##.11
##cp
doispr
râuri
mămici
hong
croazi
citit,
descin
țăranu
canicu
##geţi
radiog
expun
##,s
§
maiore
##rif
”ma
edili
insemn
banu
vizată
##elare
roste
mind
deutsc
de-ac
##ul”,
„ia
##jb
obose
mar,
rebel
bak
##uel
##ndență
nemijl
luciu
##agin
vedetă
lai
dezord
spuses
quin
baz
tarif
##inați
tigaie
##liste
drame
##ră”
##gice,
(ho
##lec
faţad
l-
##veanu
##genţa
sabie
##c”
groapa
##trea
##dăr
suspin
câmpie
##iţii,
mw
##ografic
imprum
heli
vlah
sama
##ărea
##sex
##esul
##bio
urâ
desa
buf
reuneș
##ptul
##aștem
dvd
„fu
##ли
##dii
##tamenta
stâncă
flag
înro
zgârie
timiş,
##riți
##core
art.7
##coas
strasb
porții
##-16
ţigar
idea
activ,
gent
##matic
##erului,
##enților
etape,
virtuţ
puna
relată
„fr
«m
spot
300.00
##1/201
sma
##][
„ho
subm
fetiţă
cine-
##mbrie
"con
înf
sept
lotulu
egali
##/19
et.
##te"
##lun
pilonu
“p
##vac
decăde
gravă,
frati
cannes
##8/201
##sații
înghiţ
magice
##uturile
##rative
senzat
model,
dinții
ultras
supt
cortur
##oll
##och
prăji
miș
perne
"din
##ezece
marția
lipsur
ein
adio
##mut
take
amăgi
zări
oligar
6%
##țiului
##sson
##hari
mureșa
„chi
cruce,
##ºi
masivu
agitaț
tc
ime
##adei
matură
“to
intraț
enorme
"ro
##scop
##ferin
##emo
##inge
de-acu
speram
gustar
bărbăt
nebune
ghica
dare
##...,
##ţirea
tătari
subs
fundaş
zh
jignit
alb-
supa
javasc
ca:
"w
sutien
aștepț
##vl
lagăre
micşor
clă
##tara
buda
##tă)
##ox
##gov
rp
aceiaș
rut
visez
haotic
fazele
##asa,
intras
##tto
##nţiale
##ва
dezi
bios
##isten
retete
ratele
##ritate,
oile
poluăr
înver
##stați
milan
autoc
înșine
##σ
##m),
husa
##crat
acute
##tituire
prost,
167
##rirea
râz
miniat
pătimi
##:5
##arente
target
pumnul
maniu
upgrad
##rina
boxe
rapidi
metafi
gs
##sl
##ngul
ieșiri
dedic
meni
i-l
(român
cadoul
##ţiş
tou
măcel
ceau
autoco
1958
napoli
##vig
fost:
##.se
##ăv
toni
##erentul
înș
vampir
malta
atace
notar
hotarâ
##7.0
##ilie
##etenț
##eață
##ţuri
tată,
##-x
##lion
străpu
cumul
cir
##cţi
##reas
alc
##nala
##ogică,
##drei
lord
înşine
olivi
țig
“du
vulgar
regiei
##mio
savan
propic
odo
##ques
4000
„înt
epurar
##lzi
##:4
bănuia
##ati,
##ortă
„împ
##trop
obi
ryan
foli
euro),
apr,
scott
rect
logo-u
curbe
##onicii
„bu
##lor;
##const
speake
##iba
putea,
dionis
barbie
aerisi
##izaţie
ever
proto
##cator
salate
juan
##onăm
caps
##lah
vocaţi
sion
atanas
(av
##ăș
sino
involu
##ărire
dovlea
##arilor,
##þii
“st
ruse,
##îm
##ltă
[1]
##pier
xx-lea
sle
joburi
hidroc
##ntăm
superc
legiun
##nam
șantaj
codruț
157
parant
scut
##ămintea
șin
fracți
##elea
fibrel
24-
##cțiunea
veselă
liti
chiric
fp
de…
deve
culcar
##una,
##imba
codru
##@gmail.
purure
ost
##ce”
“con
(cl
tonic
înfr
#1
##scan
dintr
##700
cuco
bila
aşa-nu
##ările,
##stro
pungă
chit
wer
iez
##nberg
##er-
zice,
niţ
glumă
careia
##nalele
păianj
sută,
poeți
firele
##ofil
xi-a
decola
burete
ţi-
prefăc
omorâ
##pm
puii
înnebu
navei
topo
supuşi
poze,
cb
##tract
##epr
ispiti
(26
ergono
##denti
„sta
m2
mără
răsună
retele
prinț
delia
coard
(nume
##zni
vicar
##rra
fraudu
##ştiul
lămpi
egoism
gîndi
##-be
thu
destui
reuşin
mocanu
știre
yi
inacti
##afiei
setare
pirat
##voa
cioa
prezer
crima
##olin
##rhal
flămân
bătu
handjo
##dil
alin.2
vagon
##uitor
##ui.
stiril
consor
##mita
viata,
relu
paro
pag
nucă
soțulu
jud
##upere
băcăua
25.000
machet
elo
daci
arn
gl
dânsa
charli
1952
##şm
șocant
născuţ
domniş
„min
răsufl
elevă
##mane
##ke,
##ii)
pietro
24.0
eth
##lata
##d”
(1,
##ografie
“lu
burta
##/vi
##hte
late
##trial
tinctu
esen
camil
sev
##ionare
scar
ierbur
unc
nov
brațul
(ha
gle
bomba
cuviin
(despr
tragi
##th,
mamelo
hidrol
##an:
verg
##trăm
store
legife
apăs
“di
##enţial
sy
insomn
##–1
plates
1942
##(p
##ko,
elita
##jin
nitr
firi
proroc
1959
##4.0
dezlăn
„tot
3.0
„ju
adu
##arta
usoara
(str
##nial
foștii
sedii
cofe
##atiilor
sacou
(19
##:0
##onie
lărg
gînde
##ăte
##ale:
xii
beci
##oz
ţe
rim
dise
cârp
ilfov,
static
agat
obşte
gog
##oae
alpin
cupă
canonu
##tmi
turcă
9-1
„ev
evan
##nco
##euri
##f-
suda
##efi
perdel
invocă
area
##reţi
jude
arzăto
205
##centa
aia,
10-
##tr-
bach
antică
reducâ
teodos
roşu,
făt
cehia,
boc,
3.1
##.ca
înj
doo
află,
viral
(până
##ext
olga
atinse
"r
(peste
##ocutor
##antei
votați
##bandă
roo
##col,
sirop
simțiț
perie
dornei
##ături,
stuf
cehia
##tudine
tribut
ghivec
utopi
harnic
firea,
##erol
ţa
hod
cov
##long
##dui
vede,
guler
aviati
5:
cornu
gării
##conomic
vindea
pudră
##țire
##mur
(-
##tăţiri
râsul
iubiţi
buzăul
need
##los,
neimp
##7/
schemă
afro
acr
babilo
##trului
##uss
scader
sălaj
##-20
dispec
##arce
edin
##ializea
palmă
musca
##iot
##-8
##iseşte
inalti
brum
##utică
##jeni
izbăvi
dioxid
gera
”da
grecea
conluc
1936
groasă
(c)
##jn
##ioneze
moale,
dispuș
“h
podgor
##viz
hercul
##.-
##lege
uşile
uiţi
##²
##umirea
##aco
părții
##gis
chicag
##mică
romilo
##iceanu
barba
galile
noro
netra
căni
##ка
defila
fixeaz
caş
gazon
##ei)
abra
messi
îngenu
page
##poa
tăi,
locala
false,
bietul
р
##omic
frankf
înlesn
lob
dragi,
1937
boro
mâini,
image
superv
barack
prutul
##etică
##8.0
##natori
amp
pisa
##.eu
##ifică,
mano
py
folder
##zm
##văț
162
titlu,
##şuri
obosi
##z-
înşişi
##-bi
popi
pogo
##ptic
eura
##xal,
gotic
##agi
graf
##icați
##eus
albane
##7]
tere
##]i
herb
##-pro
nelips
##buz
##alm
##ăţi,
ltd
d-lui
încoro
##-na
scriin
clare,
(27
##mento
şedere
igiena
rã
gică
[cite
##ла
##orată
##ionistă
mirosi
(proză
culcat
b-dul
rapida
ion,
tavan
răceal
unspre
scenog
ung
simetr
wid
iată-
crețu
3-0
micuţ
##isește
uber
milise
autode
##logie,
##ai,
vada
nevoin
cău
împac
caro
##coc
##ba,
„doamn
pâine,
insufl
frâng
darius
##uneri
b6
pus-o
##merican
ai,
##izaţi
##boa
(cre
##zian
4-a
adaptă
stați
colleg
spir
##rante,
##izant
##ionist,
##icieni
##nna
##ô
16:00
##-r
grada
(auto
##ție)
##oil
părt
digi24
"n
ghidat
civice
soţi
colier
agn
iluzia
gurii
boală,
##ер
##life
„int
alpini
##ăla
##părare
##nenț
(rep
##-cl
wel
trecu
##/pro
leh
legămâ
##sura
##cad
“ar
indisc
derapa
"ch
##eţii
puști
bustul
##ce)
vreune
ramona
făl
benedi
##&a
„leg
##019
surplu
hârtii
elogi
##larul
##item
2.5
imprev
##bei
jungl
##uptă
##lor"
intro
##cis
mist
autog
rand,
chif
##uitate
##heta
##dos
##2012
săge
multia
bătaia
atomic
##atr
surp
corecț
##emierul
reușea
păs
cors
adițio
##mr
bălces
##list,
păzit
lăcătu
mob
form
##hii,
dn1
spad
sorina
mirese
(denum
##cant
tent
putinț
gratii
piete
##!“
epa
îngrăș
acela,
semic
murmur
foamet
boli,
##strații
trup,
muchi
##over
##astr
##ndul
basme
##cându-
##așe
##munist
învech
fuste
##rdului
viș
câstig
##țitul
scorur
##mania
sumbr
lav
grijil
satan
bucium
cape
##ificati
uzina
răsuci
##link
##lal
whi
scriem
redist
dy
##stal
sod
dâr
##ţări
##ăta
##izibil
spătar
##rism,
##2.1
walter
##uctori
##inţii
rusi
largul
kro
anders
abd
##entari,
vestir
##dina
##bilului
“ac
sudic
cioloş
week
tome
loreda
##ndam
călăre
conjug
trait
pã
nuan
eoli
##amat
„tr
style
ando
jertfi
##kas
otopen
„cea
“eu
colage
1966
kl
colt
certe
##erabile
radiod
diva
coh
"pu
atotpu
otel
##usc
##carile
radiaţ
##unda
vocați
scârb
născăt
căsuţ
flore
dumbra
carora
frig,
spus-o
tau,
ort
afluen
adulti
##tlantic
##dant
6-1
spic
scriam
gingi
elan
##dum
slăbi
##and,
##elări
„be
dm
##ulele
resemn
macari
##limului
votată
12.00
nikola
stopa
09.0
##0.201
paște
##enia
bujor
viceca
neme
blondă
țara,
##losi
tîrziu
avanse
„spe
admisi
leagăn
ghiță
căruci
##lom
snow
murito
goga
##tuia
##inită
apăsar
sărută
sotia
##ction
ştefăn
ero
asorta
pornim
curg
##-ai
ţinte
hai,
cv-ul
dt
abonaț
prinși
mamei,
##tf
##rali
surse,
gov
exfoli
ariil
##-h
şoseau
incest
"f
laba
cufund
celala
##tech
##du-
hemora
roșii,
##plin
##ederi
incuba
morti
certat
“sunt
podi
numeas
log
focare
##andi
##ultur
ria
##rmele
muse
kh
alocă
##...)
##regi
##ile:
1957
##tivat
încon
pancre
fermel
##rată,
##mpo
cipru
##5.0
##euro
„aceas
obr
##entați
am,
##def
##ticul
##noasă
##liga
custom
“f
x-
silen
anihil
mării,
magna
[d
##dinte
v-au
deznăd
2.4
##-st
vâs
făr
săritu
obraji
iubiți
##ncea
##lam
##fti
##cțiilor
traile
##ădă
repete
păt
vocile
pliant
##nee
rd
phen
##unere
(ia
##tografu
##izo
măști
fluid
##ender
l-ați
##x1
pîr
##ateral
sorţi
fly
suplin
##-fe
nav
neînc
##urările
##ionerul
##izate,
urban,
zv
ceru
##,p
zâmbit
##ăţe
##ndr
zag
„ş
(fu
##tural
casete
river
##ndu-
##dei,
sugar
onu,
hav
satelo
##sub
„sf
prânzu
##media
uriaşă
##xim
profi
(11)
scuti
eul
##spect
înta
nv
greo
##zione
friptu
dima
tunel
ploile
##spr
temp
clasar
##read
##arketur
viti
##cru
karm
##izație
soroca
##zarea,
săpătu
oscila
##ctante
„ru
trinit
scoți
1961
##work
##ntr
secet
nae
minoru
„dr
##buției
##ighe
valore
corp.
spanac
reușim
(194
grant
bow
bes
șefi
##ii-
urat
amân
bez
6-7
risc,
atâţia
##vers
##ntaţia
flav
apăsaţ
##(s
##efan
##-m
##ular,
##ß
căutaţ
iubest
incrim
căruț
curand
bond
##lv
##gios
„alexa
##20,
ela
“su
patent
##ii;
ocupân
##oveni
idio
##dv
whe
##tions
##ezii
##arentă
fes
advert
##cini
##zol
walk
lcd
##vid
##tora
hacker
##rop
##bric
valen
neas
omoare
hoți
bravo
egoist
dacia,
răb
##gm
##ech
contop
alerta
„înc
curve
roc
citită
##nou
##geo
dou
bobi
1962
##-ge
##""
##во
##itorulu
ţinta
transg
costic
1943
dezo
##egra
obţin
cârna
##tani
coti
##s-o
nean
lăţime
ieșea
„k
gall
anda
##ulei
##işti,
##.com,
##ptu
##igo
##cţionar
„p
enerve
trădăt
##ăil
##dc
cutana
vra
măg
emirat
afect
##onând
which
sonoră
kas
##ăzut
“an
popo
cof
avaria
alegân
##5;
umili
palid
##.10.201
înrudi
scuză
citea
##y"
lucrau
##urimile
##ciali
omi
barb
##stria
##smu
nit
febra
izbuti
averil
văd,
##tere,
##ranţ
forf
##țiază
vil
ato
stănil
preo
##-dr
##tha
##dari
tha
tn
journa
els
reuses
barcă
purtau
##țești
detine
vânat
tiparu
firii
rent
##rama
##2009
##•
##relor,
##inției
theo
gregor
##strati
3-1
flora
fisc
##ndu-şi
supună
puşcăr
loren
##ntare,
asezat
##orin
crizel
dejun,
##ntați
„ai
proemi
școli,
andre
##boli
ecl
(el
##indica
##e-n
turzii
mihala
##orb
crati
urăsc
ted
defe
de,
acl
miş
##inării
##gme
##bări
1941
rezumă
vaz
plute
1953
(cor
##ciosul
grevă
diso
buzoi
##ott
##orni
##logi
##ctu
pânze
detenţ
##lând
zăpezi
dop
„so
denigr
##uo
v-o
##ăna
##iționat
trolei
publis
bute
elenei
##ore,
##cup
strig
simțur
"h
„fo
ocular
dest
##ţi”
##ois
##uţe
##egheat
sperma
modă,
##imo
fresh
##turis
func
volum,
soţiei
dulghe
adela
fuge
tacit
naş
##hita
##cept
”d
văi
pesedi
apl
vlăd
magnif
##or;
##dria
tudor,
imagis
aloca
norii
##rial,
țesut
decis,
"tr
##pse
“li
rahat
pârâ
curaj,
turbo
##olitan
##cienț
##rți
oul
##olm
silită
geoană
suflă
1914
union
brazi
(i)
încetă
”in
amici
##uve
##uguri
##cționa
bifat
co2
##încă
##fas
what
alv
##rga
##tă”
învred
cozona
##atã
##zel
##nologi
înştii
##rație
nicodi
manea
elena,
28.0
##opol
benzil
„ob
29,
baroul
##ziu
##neşti
substr
##u-zisă
plut
odes
(195
##cteri
veşti
manga
caf
"le
##elist
tet
bd
##îmb
##mitr
roş
lanţ
şoc
##itivulu
trofee
intret
##atorie
tabla
aven
“sp
însori
reafir
emerge
##șoare
„ha
mot
##erva
simi
##-mari
11.00,
ului
##50,
16.00
##…,
hoo
##ice:
##lizați
"j
tap
##nşi
##apr
demen
##seri
„per
încord
(cs
moni
hist
escroc
##ipaţi
ode
##ivire
„ș
genulu
gandur
1945,
##ë
tenis,
ninsoa
##erică
##inie
flores
vine,
„br
protez
27.0
latino
##oter
paisie
marma
pusese
retin
feti
##obe
rostog
reap
##anal
munti
jurat
dobri
##plat
oaz
calu
„par
##atica
radi
##oniști
##etăţile
ajun
"par
cantar
##aliști
binelu
##на
##uării
##năt
crac
##ogl
##lma
retros
polar
elitel
aştern
##ле
volati
neînde
grati
##pha
##nțu
prunci
ța
bordei
ară
turi
pira
-m
sperân
prosop
nep
ek
bibe
scutec
neagă
aşezăr
##caţie
vã
##istă,
vân
lanțur
bagaju
oma
(tr
##sma
şov
părți,
covâr
##ea:
##clo
##chel
gero
##licit
##arei,
toi
coaf
##.ma
gaură
colocv
cua
##e-ului
##ips
săv
stațio
rulant
##igație
##fui
știți,
mulţi,
cortin
secui
here
##onică,
“me
“fa
oare,
grupei
##kie
##ce:
vagina
##velor
oltchi
"ve
piloți
eta
"ra
“j
mâr
##lător,
##enta,
feței
##estul
multi-
logan
mi-
"c
lipov
ejacul
„cer
transe
##or)
ghete
clima
"tra
parc,
iscusi
##gaj
uscăto
lămure
capăt,
##-du
##egiat
intocm
driver
faun
::
##ãs
tipolo
euro)
detenț
bere,
##țită
##umiți
##indu-l
rss
inger
##pur
##mov
##cap
termos
muscel
zadar
birui
##/ma
##ldi
tăie
auriu
(192
##ețe,
serio
moham
cutare
##uter
##uctive
##iță,
wizz
(40
##com,
cent
pomul
##sez
spu
gos
##zh
##k)
##iciului
lum
##zezi
subofi
pârâta
masoni
##itea
număr,
banane
vedeti
micilo
intime
corne
brăile
baghet
readus
raioan
mun.
impu
hem
##rich
sut
cobor
încol
reînvi
șefa
trecuț
##vind
##tun
fibro
avalan
acet
##neanu
deş
##onaţi
etnici
##cunde,
egipt,
##du-ne
1933
"m
##2017
##nice,
##entin
##-fr
nac
gâtulu
zd
rui
raid
lăcaș
coagul
##ко
##ication
##-ac
niko
fosfor
##burg,
cona
nedi
neconv
fibră
sankt
gelozi
14.00
##tățeasc
mî
##/v
##sko
##mentală
lemnoa
##oana
##dacă
dress
codifi
##ي
onorif
succed
muște
colţul
culese
castan
##ntale,
voinţă
side
coz
sop
nereal
gât,
eleve
##ilibre
strămu
măs
(50
unealt
xa
tali
catala
adrena
”mi
##ndenți
radiof
mone
##pez
atipic
##şedinte
exist
##hise
done
##reș,
înfund
mamar
kil
##m”
dedu
any
##hib
(direc
##enc
mers,
cî
corte
răsfăț
##ot,
“z
20:00
08.0
##vati
purtăm
coas
grandi
"sta
##astă
##ét
învin
boabel
nesemn
##e-te
viva
2,2
##vest
##cațiilo
##buri
##acţie
„col
predau
postmo
horea
(cam
pâ
plăţii
plajel
bancă,
fapte,
cz
preşco
serba
onesti
##/10
7%
stia
(ver
trilog
csi
bazând
##ctiv,
borcea
##nescu,
palate
(193
##loca
paz
brig
soți
estiva
tampon
1968
mond
(ser
##kins
denotă
aviaţi
##jea
##iru
satana
cog
(d)
##umiri
##muni
##low
testăr
cugir
##tenţ
euhari
glic
##brarea
stone
sist
suburb
u1
his
eye
inu
,,m
##ormări
„exp
poștă
cuțit
8.00
##idel
fizio
băieţe
##bec
serveş
mogo
debit
aromân
sonor
18-
germen
##uitatea
orz
așezăr
bia
##ie”
##abila
lavr
(tre
##ibi
zbur
hel
##țar
golden
##ietor
submar
north
macroe
##4;
##2006
##s",
umedă
drobet
13-1
##unz
##ește-
cripta
vincen
adanc
(cons
##e-c
ți-o
##văţ
##slav
mn
intr-a
izvorâ
(dat
impara
retine
##ilirea
ok.
##itori,
tălpi
api
##β
##buţii
miz
##-v
“si
seră
1977
##/con
lucr
##ов
##minării
puie
umede
păgân
ghimpu
##zv
mişt
##jude
lân
isa
zal
gînd
arca
vaca
rudă
cahul
##isiri
indexa
făc
-i
##atar
panta
duh,
##ouri
necura
coachi
##mentul,
##nerg
##nțială
irevoc
##wor
##ianţi
(num
lp
deac
„șt
douăsp
##pect
mînă
##itivită
scotea
pomp
anale
##erenţ
(aprox
##ntu
șosete
rud
lul
##icianul
(zi
##pa,
erup
##rsi
##ath
boem
rosa
##guverna
gresit
ghea
ostili
##șare
##disp
poposi
ball
##loase,
fort
faraon
##ţion
##tât
migrat
căzu
stroe
reuter
mafiot
abona
onorab
deși,
chen
##ianu,
căra
că-s
##tatorii
cruzim
##oin
reme
șle
##orice
zeelan
argeș,
##ucţiei
afişa
##traţii
##part
##itele
wiki
sutele
sandal
##-bolyai
##şun
##vale
stân
putna
mihnea
lidia
foştii
ceara
##etăţii
##ciilor
##ika
livezi
brânze
(per
viteji
ouă,
cioran
osoas
cinea
##ès
fetiţe
ligă
ambr
##lva
##sunt
##orește
codr
##dament
##bid
jurist
##incio
##hnic
##.la
sorti
sexi
##teli
##fri
yky
păși
"ş
clau
matei,
capul,
30.
##ei;
„c
zap
demne
3-5
rumen
omeneș
neva
exp
##-or
histor
th
##γ
tomo
inst
##ntial
xvi
1/2
miere,
##lut
##hili
prânz,
##tula
##isan
##aha
începî
mihuţo
15-20
nemaip
##gică,
##erabilă
prim-v
##vânt
isaia
praga
pib-ul
parole
##ende
reluă
buh
rușii
rote
##6/201
##mad
șov
prajit
##fet
##eghe
safe
crengi
##nova
carref
aduca
##016
ry
0,3
geni
țea
prisos
##conf
păze
n-aş
riscan
##onează,
albul
zmeu
xx,
reside
its
##alişti
p-
gaze,
coșmar
priză
dedesu
afp
ide
(ch
##uiţi
ştampi
50,
##enar
vulpe
pee
cne
##leti
„dis
neconc
(poate
##veți
intai
"ta
##p-vicar
petiţi
oua
1955
înh
termof
##deau
stralu
##8;
##/8
prinţe
dedică
abera
titus
asa,
îndeaj
(31
micut
(191
teri
reusi
oțet
##pf
burdu
##şan
##ches
şez
nuanța
devina
##ptată
##sw
##e-m
##-30
##uctivă
valid
##iei:
##ibiliza
##cenţ
ei:
bârn
admit
urmat,
rememo
hram
amin
##aselor
neop
idoli
dogmat
roșie,
“sa
bros
##wic
##onale,
aşezăm
dureze
##mle
##ise,
neaten
##ptabil
tocuri
pâini
##max
ce-ar
##nțiat
strazi
granul
##2016
##-fo
##rita
##municaț
paji
bordur
##cest
navele
calomn
##meria
şte
arz
priveg
nereu
top,
##șez
##inare,
##mici
morm
##mod
penult
abate
dara
14:00
județ,
baltă
tecuci
latitu
flex
2018:
##trice
##entizez
vii-a
pestic
cerne
impre
eso
eter
salata
darea
burtă
##mier
12.00,
“ba
izolaț
##-14
##cee
sot
cova
agrar
##o-m
nădăjd
(luca
##mg
mirel
##-sc
dovlec
ave
##eţele
##de:
melo
##scuţi
elle
##riţi
##raj
##,/
neoc
##ânta
pleș
born
mediaș
##ometr
##ǎr
„cor
lari
hârtia
flu
noe
##zola
##ficaţi
##minarea
decoma
cram
##ен
п
##trist
“este
##coi
##istem
##gram
##umu
subsem
##zatii
##able
rid
##stele
##sitari
persi
fet
vesele
freder
cu:
bulb
##icatelo
##hipa
##sman
##metri
moh
targ
sfâr
cămașă
330
##…s
mergeţ
afirm
călă
cotele
balul
embrio
##ni:
##erv
nr.10
nemer
##ătu
pope
apol
##-en
eșuat
##3.0
##---
puș
colega
bure
acuze
##ан
##cioasă
##atural
proza
muf
##urn
hou
##stit
ruseas
fundaș
hein
arunci
##tanţi
caiete
jal
secer
defalc
10-1
##timi
##ress
cada
##ule,
##reu
uitate
1920
##rup
##ico-
reglea
gf
înd
radiol
carb
30.0
##ipsa
##ribu
##eld
prince
##omen
“r
grași
foste
nuanță
„pl
parada
##ãrii
##dean
pernă
##vâr
##master
senină
lăcomi
arunc
tentaț
nociv
ineren
omoară
fol
andrew
ono
garden
##urea
noduri
entr
##izând
transv
nice
catara
##ârl
sî
##sov
##oanelor
##dita
binefa
##onat,
##gust
##contr
rugin
##ţean
##rv
stoic
rădăuţ
gală
##erne
cupo
195
împădu
defa
matri
glu
##8]
##onecta
mf
resusc
evitân
parea
##uden
##menu
demach
##stră
##ue,
1948,
tragem
imoral
deszăp
1963
1960
##ilibru
sime
##inel
pui,
cauţi
##telu
tesla
rotati
##ști)
##izaţii
##cţiona
amfite
##egr
prinşi
prezic
##e-uri
garci
lupt
bursie
holb
clerul
##stiri
##cale
udmr,
sanctu
batran
##ului"
##oph
##h)
drag,
becuri
recesi
sinago
cear
(cea
##tab
co-f
ani:
##ă...
##reanu
##ilizat
##eag
art.6
##kis
##dle
înțep
neprev
axi
##uceți
##manda
##kos
d-na
##tician
prăpas
hang
hait
evocă
bren
##izari
căii
##sional
anim
##tu,
șomeri
depasi
##torie,
came
africi
stockh
rovin
parano
isaac
##nteze
“pa
##dire
ves
orhei
comă
agri
50-
##ștință
glezn
ghiţă
ghidur
##ndez
aripa
sher
##muz
zestre
sonore
campin
##ateg
vib
obții
11-
##eu:
##a?
“ex
parie
contat
##ater
rabin
mantui
(it
veli
trăite
##*,
##ţioas
fid
##nțeni
##are”
##ajare
timpi
foraj
##-americ
##ătă,
##egiul
##ensat
##bod
suprad
tiv
bănu
##pune
deș
##neau
„avem
rond
sol,
##jet
ruseşt
farise
carpe
1.200
tok
staţio
##că)
##idia
##i-s
1923
##ărie,
acvari
3gp
tint
##ts,
##face
debite
și-mi
vintil
##.nu
##rco
nomenc
sã-
cablul
##fund
span
ruşin
’90
seismi
răscoa
5)
last
##-2018
rari
##tefan
pagub
kai
nora
fanati
##sle
##ary
posti
vărs
rel
găgăuz
vari
răzb
there
năv
fețe
##bai
subca
##cător
scha
##cţionat
##-cheie
##buabilu
##seu
diaree
##light
timi
##gton,
brate
##„,
##pod
platin
##țească
##disc
fluidi
##er:
m-
art.5
şters
zero,
##2.0
metal,
##nchi
##riţ
însumi
##inţe,
##ette
limbă,
divi
avarii
şantaj
inox
##ți”
##bes
cerută
8%
jor
##uer
năsăud
26-
(1-
##șef
sosul
cuvi
##rof
vlas
class
caren
##ocul
sofron
sirien
cosmos
calami
##one,
stafi
ska
gno
cone
##antin
acces,
simțul
felin
tonifi
lăsat-
##evo
urmei,
##ieţuire
pug
carlos
##oten
##işte,
niț
##ndu
lev
jeff
##-ami
##truit
zodiac
năd
şer
patern
orășel
##ăul
sb
preot,
##ăsi
postea
##ublica
iancu,
ajutaț
##ligi
înfipt
obște
,a
##ward
##alistic
obrazu
foa
părta
mada
prima,
##etati
##vert
##renţ
##nția
4.5
minel
##ctr
##ciarulu
vestia
delfin
16%
“v
##y.
##ciare
##băr
lir
impas
maine
scap
arcad
##îl
raţ
„l
tehno
omis
##tiul
osi
##ctie
##afa
beck
zbuciu
lupu,
##versi
##ito
aeros
x-a
##olitulu
slavi
holi
##))
##ror
ocole
certur
spun:
(29
##inist
ţigani
căruţ
##pl
##o:
allah
##șterea
maiest
brian
nască
mai-
dilem
##rmal
##cturi
##ctate
##1-1
1929
biodiv
vioară
reas
larga
iconi
apu
##t.ro
##lii,
„mare
variaţ
##toi
drumeț
##cienţ
râd
retice
suplea
isp
##urând
##nia)
##eața
„vă
zf
clemen
##pală,
sebeş
gun
##rbe
uciși
tupeu
duhuri
”la
tama
pour
073
##/7
archi
marxis
catap
##2008
##lă)
țo
bâr
##bean
viz
gust,
##vili
##eris
blanc
##nsta
bihore
##sităţil
##fice,
amn
jon
cry
1951
##proiect
verii,
##wee
sobr
muz
geniul
cumnat
cuget
##ritul
##niei,
focar
firme,
bude
batt
##017
##té
##inariil
pepe
amnist
##credin
urări
serile
curato
colu
##/în
soa
##tov
înrăut
împrie
##om/
##e-a
seme
paşte
"pl
jr.
ded
votan
răm
##tiune
##amne
cehosl
arme,
##xel
##mentară
adînc
scanar
curele
„mul
clinto
acuzar
„pla
niș
filip,
email:
##rtată
complo
##sca,
slab,
desfrâ
cincis
##5-1
##valua
preg
panc
spăl
deroga
##e?
##atie,
##cului,
##ctii
gen.
bălţi
aderăr
##ucţii,
##reşte
numa
##thi
barbă
dreptă
race
kaufla
univ.
##ditate
soni
parap
##ic”
oaie
comăne
„fl
##nomic
urmand
rag
antivi
##sal,
##ortată
aprig
meniur
##0]
insu
##cțiune
avarie
„cr
“bu
prm
##än
##omat
##fab
traume
păpu
1.8
manș
vul
piept,
siren
child
26.0
##parti
şin
banul
(regi
##ficăm
crez
omni
6:
abuzat
1800
xiii
ng
##lţ
##gc
emmanu
##logică
##arența
tipi
##tan,
gaura
##lement
volvo
1.7
(ju
##dău
ruşii
verig
##9.200
soia
fosil
strip
modei
emisie
bărci
plății
neag
inexpl
oferă,
jak
fito
„dumne
nip
bule
##imativ
gălăgi
pati
garniz
dispen
„reg
bulgăr
##stre
pârghi
marcar
gane
##/20
##dră
curati
##ariu,
ţineţi
bratu
##hani
(fie
(cal
##âlc
obs
citeam
##fta
profeț
judece
##-ș
##ționată
vînz
##culat
„ec
wis
trataț
ignor
##lamenta
kong
topuri
tokyo
„rea
ntr
##urg,
pixeli
molo
##sine
pred
nece
aparea
0332.8
varii
##lde
adiţio
##-vo
##uh
marion
fox
3.2
"el
duelul
##ski,
##iur
##olor
roci
sosea
odai
imper
vidi
##tarul
”co
sâmbur
##mec
##a-m
„rev
nevest
carose
"k
##sc”
##ific,
vilă
##şea
“fi
temea
recidi
##ţire
fermoa
evrei,
##nțată
##ella
greș
„part
franta
##itiilor
##le”,
lavand
bălan
##gent,
##dad
stîn
mog
xv
vrăj
sevil
raf
macin
caus
##oaie
cult,
2500
than
ajunși
##-par
petale
fanfar
brânza
##ețul
chr
antide
##kle
##gii,
ocolul
##12.
salo
nepu
chiri
pact
fâ
dee
##lici
nero
##atrul
lungme
(er
##rice,
##gori
##e.ro
prigon
fărâm
baloan
accede
3d,
"ap
podu
##lizate,
inp
emana
##registr
##entară,
##ate)
##obo
##ne)
jumătă
##buțiile
corni
care:
ped
nr.11
minună
maj
dig
tw
##utiv,
##zelor
##icel
##reş,
şarpe
ré
##iţional
##că-
##aus
##ais
1925
##pho
iubit,
hanul
##nari,
tony
canoan
bande
subsec
##ângeri
(doar
##ctuală,
sârmă
malefi
buruie
ghem
a4
urani
prov
dres
##wl
blândă
##.19
burn
##lţi
people
penn
##hed
##eneşti
##arin
##ându-mă
zeilor
qua
juriu
inc.
ce-
##/su
##doi
judeţ,
##atist
prip
nudi
dacic
cereas
##bii
făg
10.00,
urzic
apogeu
pune-
##ţionali
##ín
pericl
##ovs
analiş
1954
##zza
##or”,
#c
##prezent
tant
##ghin
##arenţ
umbl
##ovă
sosiri
aseamă
##ietate
##adel
##cont
metamo
"ha
înfră
aceiaş
loveșt
alan
1921
##mpu
##helul
##eptat
capu
arene
vocale
##ential
lubrif
trot
nicic
creast
##vs
„georg
24.
##ider
„cur
varza
pose
ierte
ft
ascuţi
mutați
##alism
retinu
pix
fumăto
zin
arr
verbul
vecern
tăria
##lările
sparta
jupân
bed
hartie
##ctantă
##ref
##ntit
sati
board
##sex-
##eric
terț
nefumă
n-avem
falez
alde,
##-194
##gan,
optez
alm
##ânge
##roman
##nesti
##imb
##dezi
conacu
1987
torac
ironie
##come
40-
pintea
pilda
izola
emotio
"v
bartol
##ți:
soacr
botez,
##hov
##umb
##ctură,
##0/200
##itatii
##iene,
reţeta
##1.200
##ăcăto
iluzie
##ității,
„adevă
demon
luptăm
ovul
indige
crai
acc
zodii
măsu
„ur
îndoi
umblat
qi
patise
mămăli
##ne-
##cui
magdal
debitu
[p
morala
##patelor
ghici
##ţării
##uții,
##ierului
turda,
risipe
phone
librar
9%
vroiam
pc-u
zooteh
orific
(ace
##ideze
„d
țe
##tex
##ionați
ortope
humoru
##45,
subdiv
sicriu
##o-econo
literă
corr
##bani
##stori
##jăm
urbe
1935
rc
##cret
„prim
hărțui
balad
agh
##buţiei
aberan
##uran
##icaţii
net,
lite
expona
adn-ul
##real
vico
luau
trimiț
mons
male
bernar
agendă
măt
arătă
##oomla.c
##omin
"român
venezu
##udini
##gard
##bula
##agr
##iană,
jubil
##uctor
##ltima
##hard
##те
##tî
tus
romă
reîntr
genoci
”un
pică
other
(the
##izualul
##amb
preluă
##dz
presat
##-13
##ries
cârciu
oleg
lance
entert
##oke
îndure
strivi
analfa
ameţ
rădăuț
jig
furate
blinda
##misuri
datând
1924
##versate
##px
“ş
renat
aliaj
șters
xvii-l
##éri
##qa
##/11
##ântare
plătiţ
(lo
scho
arătau
##)”
magi
mcv
căl
incorp
##can,
țar
undel
##ovic
balonu
##&s
rip
carm
31,
##yg
##vativ
##kat
##015
##nței,
rân
lant
însuma
nebună
b2
plecas
joase
hărţi
tâlhar
soluri
munche
##şie
пр
exterm
##umiţi
##nământ
"pi
##enţiali
eradic
denu
bautur
4.1
trad
rareș
osa
mistre
##izații
2018-2
##lob
luati
hog
##η
##nm
##glo
bursei
"fe
rib
##tol
zori
c-o
aruncâ
rugând
aie
##x.
##rog
##ntul,
mostre
unicit
cnc
într‑
recit
##tation
##amele
inconf
etnic,
calcă
##ri”
pustii
orban,
mustra
brac
adapto
##pici
sone
neper
##lui)
##izati
breb
##luzi
##esp
##ff,
seda
racl
erm
afișe
##nit,
##ja,
rub
miză
##stan,
vali
spalat
dota
##ndra
##an)
frațil
destab
bruscă
pescăr
ign
##ctuale,
libr
##bine
num
##diți
ştiril
voinţe
[4
##luț
furc
obstru
##6-1
##rieri
zaharu
unde-
thrill
blaga,
##mpă
##atul,
montre
1980,
largă,
##ogene
##a!
##ripa
jiu,
stancu
##etraj
##alie
syn
saltel
palpit
mi-aş
beton,
apollo
##uncțion
roz,
##eţe,
”di
istrat
##stic,
28.
##onta
aver
##1:
##do,
alert
iran
curcub
pepene
rulat
roza
patru,
lupa
rast
##icar
##eir
dezgus
##tînd
distil
cǎ
toyota
bush
(us
tara,
fant
ca-
##ți-l
ramp
##off
tâlhăr
poste
##als
smal
lui:
carc
blues
##y-ul
foamea
decon
##aţia,
hands
autop
##comi
##ală”
##ucu
##rială,
stiut
reca
picant
##no,
##matori
xl
slăni
găsit,
iepure
gripa
grase
##iței
înnor
sanda
calo
##.u
##ul-verb
##inet
##edin
vern
##ntiz
(cc
##-pentru
##oct
nastur
-e
##5]
##tăl
refr
inoxid
hotar
##odul
##linei
##struct
trat
frec
##istrean
##fizic
maxim,
luându
dansa
apusul
##sed
##agul
„mari
cnp
chiajn
secreț
redus,
pocăi
dilu
##9]
spar
rema
fiilor
condol
regres
octo
canto
andri
##der,
„for
chelse
arabil
obținâ
autobi
balnea
##lan,
##coni
##wski
rupte
css
##tuti
dinc
##odor
##cării,
talp
##.02
wil
find
culeg
cugeta
2017-2
##/h
lucram
pături
câmpe
apel,
ango
(x
##orirea
##nița
##aje,
##leţ
resimţ
eroic
comm
city,
##lenț
defri
curv
gir
##nică,
ciudă
##ne;
18:00,
##ia-
tp
pono
##igu
mois
cover
##xal
zone,
poet,
gola
boo
##șcan
##neşte
##ün
alfred
##sali
taiat
ruxand
egumen
adopți
60.000
prim-
##era,
##anților
(ale
spam
nunţi
##leni
plan,
***i
brâu
##illa
pesta
jac
"cons
haret
băr
psihop
nefast
muguri
luna,
eşecul
“s
pârtii
##rli
##heze
35%
##ilat
##iați
șar
münche
cățe
agap
sigila
##s-ul
temă,
soartă
lib
##tuş
##teron
lor:
ligi
tamp
vele
nervii
dezin
##țează
##renorii
sursa:
căţ
##teanu
##lină,
##arb
tipulu
uci
225
##ilor:
miro
vog
14-
##-fil
##undă
##rmo
##ione
flaviu
scaun,
drăgă
activu
##tăţire
zbate
așeza
25.
##şeşti
##ialii
##ateri
conota
##șie
##nî
slim
expe
vandut
##teles
agende
##lațiil
##..."
scurtm
cîr
##jde
stopar
rămîn
##ştilor,
##gam
##/ramenr
##parte
##gros
saxo
dera
##ostal
evreia
##ce-
vapori
simeon
##ui)
totii
enormă
cosu
lei)
crân
##portul
(ră
##zbo
gelul
##frica
##ederea
tuș
4g
tăiată
rescri
nesimț
##eţei
petri
gram
##țiilor,
răsu
grâul
celi
##iterii
:d
înec
reîntâ
ald
(cer
##toratel
##mez
wilhel
neputâ
gândiţ
gamb
tf
darui
"fr
“ci
vigile
c6-0
oxida
ih
##tand
‘a
boz
gluc
budi
fifor
##șoară
gom
acsint
accesâ
plaza
moft
krist
##itan
degaja
temer
ecrani
##lang
right
##ndat,
##ielor
lidl
denatu
0745.
"ge
##lid
topor
marj
bacăul
##rey
mînca
##rţi
eteric
rebe
nia
##-colo
paşnic
râ
incadr
demar
analyt
##ctarea
tracți
jones
isabel
##şoara
##rea”
ceda
pierzâ
##sori
##rității
##inale
prăd
##...c
umf
lampa
riz
antih
##siune
##mana
v-ar
nast
(ş
##sorul
fiicel
excluz
##tron
pud
##vc
##utori
îs
sila
pav
(fil
pră
derby-
##014
ficțiu
##і
##ăb
##x)
##ic:
văduv
tril
genele
scala
##rantele
capre
drive
bagaj
##tiat
##eiasca
lunii,
atomi
rugați
thro
gira
galat
balans
##urală
rănită
loa
fernan
##plus
apărân
##omagnet
##itr
sacr
marci
(pn
##ia),
„art
sumede
iertă
##ienț
##ic)
pentic
##\uc
##xat
defăim
florii
##te/
##sând
oprită
nepot
voie,
reţetă
kla
spli
picur
daco
##riș
##izan
ug
călc
„…
neamt
unice,
fiscul
##ác
sfin
șmeche
ioni
##isiun
poieni
8.000
##ătit
##ident
rîndul
preves
foloas
civ
##strul
liv
##ulti
neofic
##âc
##covi
tati
partil
filipe
##urgul
##erau
supere
##rie-
(locul
ieșim
##jiu
##blem
ilie,
v-aș
endocr
irania
coltu
împar
##ține
si/sau
liu
banat,
sudică
lăs
##indu-i
##finan
##ameni
stagna
măgar
navelo
dark
##-lo
##cana
iv,
fib
suciu
invocâ
theres
##‘
should
debara
c1
##răt
„inter
##″
##де
##oşi,
##dura
fraza
coal
caraş-
bunele
“pentr
scandi
prej
##eic
novi
cehi
afiş
talk
hari
fn
##nio
priva
hrănes
##lig
iron
cras
buş
##/1999
##.pr
##derni
pist
##reșe
repatr
sezoni
(im
##";
##nțe,
valo
13-
##chis
„jo
vadu
2008-
aplic
-t
„mar
tiraj
##leu
##iești
opţion
1934
##cons
##meiat
14-1
##eţul
##dare,
marx
##român
corn
frate,
gaza
##viii
revan
##/pe
##icl
##ecv
„tre
##rie)
##anul,
șomaj
sign
nad
##ha,
lanţur
tho
rudolf
gole
##/an
##vene
vopsel
duceau
citric
6/
„imp
usurin
osta
câmp,
„mir
liverp
ba,
##lasi
înjura
ern
bret
porsch
##tabil,
##işa
psalmi
pontif
biling
asia,
##atii,
ome
hăi
quad
puneau
dragii
##wr
mătuș
mâna,
bronzu
##ișe
jefuit
cripto
9-
(ii)
rosii
##9.2018
##ăescu
tia
brân
##ştiului
##ntie
lugoj,
dere
##nth
comit
aranje
bioc
iun
corbu
clara
##aştem
ortogr
evoca
##veri
##ualiza
##ajat
manec
26.
11-1
zoom
patoge
oribil
maso
horror
eve
4k
##utiil
vame
giur
angi
##fore
alegeţ
##lizăril
##erie,
aplici
"ju
prese
##zs
##rei,
##iurile
propu
jol
te-au
rupă
hl
difuze
7:
##ie”,
sacul
##at.
urn
butt
antif
"ti
##erizate
succin
##icepre
spele
sile
habsbu
##înce
##ãc
##hotel
depa
##zist
dinoza
##nomie
boicot
ţăranu
s&
marină
kap
bicarb
##zvor
##ineri
soţulu
roată
genita
aula
force
convoa
hunt
excava
uitare
steven
simţur
loveas
##-mare
uşura
dib
clipel
##uați
umpler
agitaţ
ungur
partit
hran
periu
cree
1928
##peră
##enţilor
pica
bica
##ticilor
eșanti
"fo
gea
##onf
roșcat
foame,
17.00
(form
##ropa
##chid
##uris
##itățilo
##eve
##adele
„rec
##dează
##curile
coletu
##tese
##opu
trădat
saună
kell
##uri)
##8-1
##iori
##cina
##actu
avocad
##ntari
tudora
prerog
chimio
##ц
##ee,
##dualiza
mâinii
trasa
savi
chia
##vici,
##centra
у
##stanțe
##irma
neînd
##wh
##niat
videos
pric
gdpr
dumbră
track
cleopa
##tase
##tionare
##ionez
rise
neinte
##ит
##țime
##u-te
##onală,
sporul
human
gaf
##xit
##stării
##opr
mach
##vsa
##lvan
##inter
alien
enunţ
##şanu
##unic
impl
##izez
jachet
##or"
vide
prefix
marin,
grai
fars
count
40,
##7-1
mafia
##eţel
zeii
too
suedie
##oriza
##inului
usl,
suru
măgure
evadar
##iber
##arl
(leg
##tate:
închiz
detin
compuș
monoto
fărăde
##toase
mixtă
efort,
bucurâ
bolșev
##lh
necaz
grăit
glon
suspan
ese
grote
estomp
autoa
##șc
##mini
femele
15.0
##é,
##sun
„sin
ucişi
iero
##utie
v,
pivni
înmuia
##-video
##term
##ilele
##grup
5,5
gusta
fusta
elocve
mascat
great
doband
##mire
channe
„rez
şefa
iș
atingâ
##ivist
portba
mitite
paraf
##uoasă
sară
jung
încu
##ios,
27.
##duca
ispit
rîndu
(lu
subt
##2-1
sum
analiș
##țioas
##zet
realme
‘c
caini
##țite
vânt,
math
aser
10.0
arată,
puci
##utate
##eşe
rare,
apat
##008
##(2
##tiona
andr
admisă
[s
##danţă
olă
careul
vida
atlas
2,4
(va
##/al
##)0
##spec
##erio
sigla
cupol
(cn
##.r
seif
##ișat
optică
lact
depu
3.5
##uctie
##vari
indrep
curcan
matt
km)
dungi
tract
bunică
06:
##riac
skin
cârc
mouse
##uan
ţara,
"na
prigoa
funi
enu
##lef
lion
gazde
poliț
nuntă,
nir
##iliu
##icele
“dacă
musc
cama
227
##mene
1968,
actrit
##ied
##escen
pluti
diaf
rr
joa
##1]
##şare
##urimi
##leg
##eriți
nove
1941,
obo
erec
biot
##ruoas
tătar
##manţele
ww
decolt
##n”,
îndr
porcul
le-o
(res
printa
şar
##un,
##stil
scăpar
porţii
chilot
##stein
##ubiril
##nsabil
##iop
wc
s’a
impreg
##miț
oftalm
bandi
voințe
dăinui
cci
##vizi
dacii
xiv
aloc
##&tcedil
unis
##erica
putini
ghiozd
##(ă)
„oamen
„gu
wen
lava
ipote
stag
oo
kre
dezaco
##rro
##aș,
fază,
due
(deci
"lo
trol
bb
15:00
##6;
fab
abb
##ști:
##icator
papuci
076
'a
"tre
##i“,
##igan
##cieni,
pesimi
îndoit
te-ar
dedus
culpă
peștel
marș
exilul
clăd
##mete
“le
tanti
cavita
##iețuito
##brea
ana,
ademen
##pesa
grâu,
##ṣ
##enin
faim
"mă
##щ
barna
frânar
block
(fac
doroba
##isen
(pă
##ém
barn
"bo
##-he
##ţească
##zoa
“pre
ţi-am
soci
pnd
trăsur
suprar
făgă
2,3
##mid
##educa
##ciz
așa:
proste
înnoir
##ustului
##ector
##leri
alocăr
##ån
##mance
matura
1600
petit
morman
150.00
##θ
kem
##ratele
nerecu
pitt
bî
##x2
mant
cerna
##-nu
superl
##glob
##gatori
##anței
răsa
bogata
nata
##căl
##ultură
gazul
tune
1970,
##raților
##elo
octav
tipă
glorio
4.0
##tral
răzvră
##nându-
crișan
codi
1,0
##gol
##land,
tentaţ
falsu
cotu
##atile
drăghi
agroal
##u'
uzat
##.ce
înșir
aces
##irescu
pup
##tră,
adauge
##2011
duces
##plă
meh
##hează
lavini
defunc
12.000
scălda
##erapeut
(cr
##.re
ciur
group,
##tiz
proh
forme,
1927
##ant:
munto
dezvel
##:a
##db
bucegi
aromel
amic
(reg
##duct
##gua
huli
cars
macara
hipot
“va
reuşea
##ţc
sub-
frea
amet
##cipa
nic
maru
##uirile
prez
dă-
##şti-
piu
##nem
microu
felie
ret
piscic
olaru
##lizeze
sămânţ
##?e
”tr
vină,
##ruct
##ondentu
scul
herme
cân
haiduc
##icatele
carag
noica
jul
##tir
hala
gui
până-n
##roni
##moa
tuc
centri
29.0
##onistul
##listă
pcrm
maimuț
1988
13.00
##raţilor
opusă
(une
##erul,
nicuşo
eden
mahala
hair
vacă
##."
##entu
##dow
puric
pulove
215
##uda
##ii.
marime
##ciente
stani
##r/
jama
„nici
7.000
##xy
##eriatel
„via
vegas
iss
telu
##ntării
păcăle
19:00,
##ãtor
##word
cuza”
##tarile
##ologul
kr
##tate”
egala
viză
mistui
blăn
nab
##ersal
florid
deb
##ame,
înștii
vorbă,
sfida
oxford
##uire,
„ser
mărin
##ârc
##tk
tortul
somat
mărul
toren
pede
atîta
otto
aff
16.00,
duz
##dona
vestig
sigili
"...
pree
„act
grama
ştire
##itare,
verdea
##eol
(tot
„poli
vig
##io,
##ieni,
palmel
##1/1
##mam
preț,
##otel
rugaţi
poligo
colegă
(roman
căldu
##ionata
averse
112,
feed
nesup
##ediari
##bâ
gib
dini
alei
torino
păcura
bogat,
##ceu
##hine
afa
slabit
rodn
linux
##rantulu
##elli
tone,
maici
zlat
mort,
bucl
(pla
www.a
varsa
nigeri
nepăsa
iorga,
clădit
laszlo
sopran
##vată
##ezire
##bag
valv
##u;
##nţei,
##boi
maidan
orăden
inapoi
camufl
##ondenţ
culpa
##giu,
##tecar
îmbă
iesire
ecua
1922
##rația
repaus
piro
eroin
##.org
##ugă
secol,
motors
”ac
deep
finis
##tăr
tibet
cvasi
ciz
##ipt
spotu
frigor
##stiv
sandu,
##foni
bagi
onore
copacu
(cas
##-ni
##mud
intell
hospi
aforis
##ţâ
moț
mese,
aspir
95%
ı
##ăra
##acția
facand
##oie
nicol
album,
##þe
teofil
bubu
șterg
7,5
0,4
##făcut
##erolulu
păşi
##terat
tumult
##ent:
adri
##arp
“or
nisip,
##unii,
##inată,
șasea
shin
##ântă
##af,
“sc
‚
##oasa,
anevoi
(can
##poli
##pilor
găseau
##ionari
##tățită
##rîn
“as
broc
##coo
udrea,
spala
maya
asea
##a-c
uneasc
bald
##oaic
pipăi
1986
##luc
##inților
search
chitan
salvi
ghergh
ce-și
##lț
spum
pornhu
blas
tene
##olie
##fera
##spun
##ofit
valide
juncke
##şez
##xualita
##ndenţă
suflu
##ime,
##igarea
ocult
eșa
vs.
17.00,
##sitoare
„omul
potoli
extaz
boboci
tenism
casti
##eriţi
##eieşti
##anat
„cal
hrănir
gia
##ie;
##ake
tî
răcoro
##linele
tata,
brand-
##lbe
eșalon
##eaua
șold
pista
nemți
izgoni
##……
##epi
micuți
partia
colac
##4-1
##nde,
##iţei
minti
asediu
stagia
nulita
găsind
cremo
coru
dama
usucă
##ii”,
săruri
orican
găsit-
(dis
rii
aplicâ
##scripţi
(io
##ureatul
pătur
lasc
##ântarea
##ceal
##bân
##ăvit
##u-v
##stanţi
(1.
##stel
mem
esa
##umo
1930
##ştin
##zante
purp
efrem
drăgan
munceș
libia
artele
##ențială
neaco
fracţi
dirigi
cazier
afişar
##olta
rea,
non-pr
musica
##âț
##xist
##ondență
piar
spinar
doin
însăm
(ter
ieşiri
calca
trasă
persan
mitu
lentă
##smente
și…
rosie
##marti
învă
disloc
##arit
vant
demare
calda
##liz
##ger,
străda
##”.
##riva
sârb
filier
##9-1
guy
dent
##scătoar
ducele
cerb
##kal
##esc.
pătră
elvi
##nimul
##ivă?
##cular
wta,
tz
mizeaz
7-8
lozinc
„cap
u2
bucă
oaselo
kant
blaz
hin
însc
mirosl
##sce
##dia,
prize
hambur
##agon
răgaz
etaj,
pudra
henric
dră
##ânit
##eaţa
##cces
gazet
botosa
##caval
broder
apet
păzea
##enți,
turulu
##ţi:
##roz
##a“
strad
cano
##șel
##h.
chile
ataş
șocu
cheie,
##vod
robul
boeing
avr
alpha
1950,
##rier
sage
norman
caru
##zită
##online
egalat
d’a
farm
##ucem
##nciare
shak
locuir
facto
##circ
##bell
##bab
inadec
##patul
panait
delict
##rnia,
țigani
frumoş
##\\/
nemilo
crâ
##șter
febr
##op-uri
##ică:
unicat
mihal
##t…
hob
##deţi
sperat
raja
proze
parabo
mânecă
15-1
##stică,
teh
fixate
disi
adev
adject
##zzi
##straţi
pârâtu
maf
taste
somon
jag
##op,
șefia
##genți
tatu
indec
##u-mi
sălbăt
##neală
strans
##nsu
musafi
feb,
accesă
##abo
texas
șaptea
viş
ionela
bike
(ab
iritat
gâr
##inieni
veridi
lip
##ре
înalți
benjam
##ădea
##tat-o
miliţi
inovăr
doarmă
1912
10/
piei
##pn
##hand
emit
reloca
guardi
arhid
alungi
spiru
nefi
##gun
albin
##user
narato
##rle
##osfer
"îm
##volt
pogorâ
##ved
##poc
##geau
calma
12:00
##zaționa
poș
intrac
##ia;
suprae
jefui
##rech
cluste
##rimina
##oman
caraș-
kazahs
1932
##-ap
##gine
##ving
##perat
##iliz
##tane
mim
da'
vat
onc
locaș
"reg
vinete
bărbie
teas
##ționeze
7-1
##rizării
##i-c
##cilor,
wordpr
xe
##unte
##onarulu
##та
##uno
petele
##да
einste
ahm
##prim
1/20
##fortul
г
intona
ceb
##.12
dod
blatul
##rsa
##ităţii,
offlin
little
ilan
zamb
utilat
amuza
##otar
umflă
serbie
##minat
##gată
##unând
##tion,
poemel
pion
##ве
##onit
tenisu
otrav
28-
(rec
##xan
##urat,
##gni
vrând
sicili
##ache,
dead
##-pla
„ant
prăvăl
văl
răsuna
##…p
##sib
irineu
!”
##to,
paș
gis
oval
ecou
(pp
##6]
##siste
sibien
civila
##edo
radiot
ivit
(cap
21.00
##nd-o
negres
(spe
##lizat,
ppe
epila
##eți-
decr
##(t)
eus
carui
##cul,
matte
dezor
tămâi
three
chimi
bîr
costi
##ârg
##oşa
scoa
spunet
călări
alli
„buc
slugi
muschi
engine
"sf
manol
isj
##dor,
masa,
##uvi
##menti
(înt
pc,
##strat,
perf
impa
delu
mizera
1985
##igurat
ducat
ce-ți
sârbe
tera
##xitate
sg
##zenta
șarpe
rade
##menteaz
cenzor
aragaz
"des
##rvat
##ativele
##;r
##fec
vw
gâd
giovan
„era
foile
petrov
hoţi
treia,
moci
dansez
cuib
bett
rafael
##țio
kath
auditi
##tă-
##matică
„și
astro
##tivare
irever
##lyn
##eel
##zur
trig
stal
ramân
poliro
eine
##eabil
lipeal
##e-s
verb
irosi
commis
##--
##șco
„domnu
plîng
antid
##ет
##cției
sym
furios
boboc
##ţită
##chea
vieru
moz
hotnew
cinic
##jar
uzi
dodon,
##mem
##ck,
luk
found
dacice
cabina
##8/1
##δ
##ânce
##lități,
(prim
##rav
##re/
##nenţ
##ea”
marti,
calce
5.1
##alat
anumiț
##nantă
eo
coșuri
0,8
##ânii,
##ole,
##ecat
simţul
85%
##ash
##note
şomaj
##ativul
stran
##ilor”
dus,
##ntrul
##caţiilo
lipeli
sing
##erație
rean
##lin,
urla
lei),
##ătoarel
##riatul
##nele,
vier
tang
1949
13:00
##es-benz
vata
2011-
##apu
„cri
tij
roh
iți
##lvăne
aplec
putre
povară
mânc
##np
##ului.
##scător
##epe
uma
keleme
faruri
(este
##aster
deh
cîmp
##ra”
##orda
trustu
soul
##tației
##iad
el:
noi”
mearga
mak
##siunea
păpușă
lune
##manței
coto
copos
##(n
##ăde
##tue
##ental,
insol
gluten
diurn
neobos
##ел
mete
fortăr
##0.0
terr
rotați
praf,
iașulu
##oun
usca
intrau
datin
##ø
offsho
„lo
linge
iod
fot
##nzător,
##entie
„lu
ipo
călare
kle
emp
##țiu,
pone
că…
##dorf
##mv
##att
picta
200509
##rfoz
##eut
##ţar
##cescu
înecat
țâ
crani
1907
serena
întra
saco
merge,
fişe
assa
()
cheme
cazat
alint
##pciunii
##fug
tîr
svet
sfanta
orase
armist
varga
salci
produ
##ţeşti
##ça
orarul
ferrar
##itei
„j
nord-a
impied
##yb
detro
12.0
##3-1
##umin
panica
versus
franço
##ușu
##bran
ți-e
four
ce-ai
înfior
impost
##.....
##vatoare
##mbi
##kn
##ainment
jid
euro-
curăți
patri
##dică
pans
##-00
neclin
##arh
##atin
##asia
faima
##format
prol
29.
255
##ureat,
##scu”
##api
șampon
nucle
nag
##xxx
##idrați
roth
oco
motan
##nă:
##mator
piloni
guin
animaţ
als
20-
##t-o,
##grări
comi
„(
etnic
##riere
tui
dispuş
##îndu-l
##tbal
turl
eurode
##lo,
##anţilor
aerod
##versa
##irați
##ghiol
starur
zidire
##-mar
##linară
##riet
roto
regină
chirii
##phy
##fact
roşii,
tags:
conac
„rep
lăsă
##emu
„aş
rustic
roşca
ceta
##clas
reacto
„lucr
zugrav
##2015
##taru
budis
##bate
-l
##ipți
păunes
prăpăd
sube
##rii”
##nol
ruso
reconc
(contr
##zem
##riot
roboți
opuse
optima
##þã
##flo
gheras
(deși
iste
##persoan
pdm
##are.
homeop
##entiză
proști
##izual
şle
nazal
##șite
##gla
josé
copyri
antece
##e-p
romulu
help
gurile
gripă
##idan
##amna
„drag
pome
fenech
plai
dărâm
##«
hiperm
1848
zum
rulmen
##mantul
îngrăş
voal
urc
doreas
##ltatea
„vo
www.c
ramifi
lego
##rşire
##denț
promo
iq
##10.201
##rizeze
răscol
##vernul
##oși,
stih
nepoți
pușca
islamu
curger
##ön
deviz
„sal
trecuţ
##tein
##sabilul
##șa,
##şo
urle
det
arti
##?c
vist
##trativ
##tivului
(gra
palace
fbi
##ms,
„copi
nepă
caze
(mod
##gati
##aaa
soco
rînd
reze
##ucea
titani
suli
intui
base
4-6
##ia”
##eririle
oarb
##scen
preda,
collec
balaur
lun
curbat
prosoa
căpu
chim
##-01
##renorul
isăres
zidar
nefond
cosi
babes
##quo
##mesc
##icția
ко
stelu
draci
##ruit
rain
pompă
plase
incalc
lexic
bona
saa
pârvu
profan
aliate
##mart
##gioas
davis
##sile
poliţ
##erna
armean
drăguţ
bastio
"at
##etă,
their
mureşa
carlo
##rieni
##ale)
##pret
ultra-
pcr
ovăz
cante
##inf
permiţ
minusc
aderat
##tiin
mentă
biat
##ilic
rule
nina
##oţi
râș
##vice
##puș
steli
##iew
(dec
“the
(art
"zi
##rcă
ziare,
omule
nepăsă
chakr
01:
„ţ
„nicol
##eil
azerba
##heim
paradă
27-
##geam
ial
aflat,
umez
##ualită
##py
şomaju
##âmp
##sai
nema
cârlig
şur
emisfe
adă
pust
grosol
firmă,
spri
paştel
oșt
pî
prodan
cazut
##oiul
scrisa
sant
##ată”
##anciar
alf
##escu”
incu
##seni
##imente
##ija
săte
summer
emanci
uro
##veţi
repune
oală
avion,
##vitate,
##ham,
neutru
prevad
copenh
##ietu
##aşe
sfărâm
arse
ardea
##ely
##canu
eme
pisc
numest
edge
cuplu,
amal
##ndente,
saltu
asachi
##sif
zvâ
##.di
mărunţ
asez
##reti
înce
zodie
jan,
enel
[[
(ec
galati
dip
##vina
##blu
volu
pleş
2008/
##ull
##ande
zambet
##soa
”po
lăsase
cifrei
biet
20-30
##păra
##maria
subit
mino
spălăr
isis
galo
agil
##ăli
##leş
cartoo
vadul
pulsul
deonto
##ră:
##r-veter
multid
indrag
##ád
##hiz
mărita
vedio
43,
##taţiei
util,
##ițel
naibii
fișe
drena
##brate
imperm
850
##căt
îngroa
anunțe
##uage
##ide,
fâși
1,9
tăin
debr
urină
seva
mé
[e
##gt
înveţi
nun
##trilor
mânui
33,
1969
**
scris:
neînsu
##nja
##landa
suba
##11.
##fiant
înfo
mințil
allvie
cumsho
##ricului
##nguri
scriu,
cicli
##ntre
##ãti
##orge
##fone
apăsă
##ctiuni
„cei
reînce
hir
(prima
##2007
##buțiilo
cabină
ruju
nesc
##nghiula
##dinile
##kir
##ediare
prada
vala
supraî
ruj
evitaț
##ṭ
dări
bovine
##lema
##lui;
(rez
##ark
tah
pistă
"per
##şco
##ifu
osâ
atașam
##rş
încre
urâtă
greceș
curen
##resa
##fru
##nuț
padure
defile
##ovaci
şomeri
zgâ
raco
##neţ
##leta
friedr
dăruia
așează
1984
(val
stiam
soldul
scur
##ly,
##grea
sinea
sapa
coo
##publica
##10)
##ucat
mongol
bato
##ănă
intors
gloan
5-a
##key
##2013
##unea,
ștampi
##icabil
##pca
rându
mascar
##om,
##dm
tak
retrăi
##intr
blană
##culo
##vera
##icani
viene
##eis
deregl
##omeu
##diţi
##scând
##egii
felulu
șosele
abl
##rod
##iversit
uime
europ
##ionului
tanc
saul
##rtr
##ntic
##d),
telem
ogo
gav
ciola
(acest
##vad
##arat
š
4,6
##adic
bien
##stanțel
##mer,
“câ
sinele
moţ
atot
##heză
##candida
stiv
##tiere
stan,
priviț
ivanov
##ebo
asse
##less
##di,
vegan
dolaru
"prin
datat
31.0
madr
chiuve
1947
##-io
„îmi
racovi
ciul
maa
##ice”
deval
400.00
##unul
zăre
mihăi
tunisi
tarifa
mosten
future
curioș
##fiz
vopsi
##tod
##ânirea
##ică”
măreșt
##/pa
##l-u
uimi
##reau
vicii
sarm
inhibi
antioh
imat
barul
virtuț
pintil
lute
selen
mărgel
##cole,
greş
gio
##-minist
##şc
umezea
cont,
##stas
##en-
1300
(parte
##icți
scutul
ridici
14.0
##șire
soboru
baronu
airlin
##tone
##m"
iş
coarne
tobo
ilari
hom
##icție
petroș
capot
bârl
##ico-fin
odi
morg
1919
##-alba
##ffi
##aţiun
##lee
ionic
bocanc
##ugul
##go,
##eapta
„comp
tipice
##.ac
##last
##ști-
orfani
incipi
25.0
(32
diverș
##vec
inter-
1931
temniţ
##şn
coup
compu
bodo
##/co
##(cod)
##kul
##ințează
tala
string
dumita
bors
##sita
abi
hoti
giro
##porta
ples
##știnț
##dob
soro
ritmic
paleta
"înt
potop
dacă-i
##ni”
##mitul
nemţi
##-as
sza
pânza
##cident
visc
rotile
costea
##itură
##ezia
întâia
calman
##-şef
părţi,
abţine
##oduce
##babil
##utele
psd-
cordon
coandă
##reună
##litar
ostaşi
##ent)
dildo
braț
##raz
##fos
palier
##flor
șta
trezim
băni
##ându-
zâmbin
fard
pavl
##zim
##i?
„ziua
prescu
ajustă
##inaţi
„ale
culi
blende
##luţ
##o-u
##lux
##ismul,
stoca
satani
savuro
exila
##elni
„vin
socol
rafa
pog
decanu
##zona
showro
perpe
10.1
furaje
##cond
pleni
traci
topl
gord
##uație
braţul
##sesti
##iţionat
##eck
a7-0
##ntaţi
##ned
schit
kineto
joia
cutiil
##rien
plicul
dacilo
burlac
##ss-ul
##mare,
##are-
alcatu
##pedi
piloţi
guil
câmpii
squa
sid
semnăr
tur,
nelo
hrăneș
##eghere,
(indi
##(r
##jen
proa
agoni
(fran
##păt
reset
loial
(ie
1975
##i-l
##șări
polies
c.p
baiat
adoră
##zorului
##venit
##şel
##oterapi
„fra
post:
1910
##erd
plângâ
grindi
##hom
starul
##santă,
##știg
visi
pove
iul
găini
schwar
peli
micuțu
##/di
##–2
##schi,
##rș
taxe,
destru
##venţii
lustru
coace
##ondenț
##laţii
##ated
##mar,
##leș
trust
##ures
##ănesc
##sabiliz
axio
hâ
dab
##&d
opres
##tişti
neperm
escap
sudor
drac
dec,
##ãi
delir
##niţa
off-
liicea
improp
vîr
hoh
”con
pată
ear
##uite,
##nuite
duplic
cuburi
înţep
zburăt
viv
caen
dunar
##12.201
##υ
##tivităț
vîrstă
triple
prom
mozart
imputa
##ofe
##avo
şor
tirani
1926
##tanții
alcali
##icită
noble
1916
(comun
##olis
votăm
0,7
0,6
înfier
tactil
măci
208
##vității
##niș
pereti
304
căpătâ
orașe,
##late,
##ey,
##eule
întro
tad
stres,
grecu
atasa
nada
de-ale
pânã
cenuș
elizab
##cheta
kind
gașc
comodi
15.00
taxare
tauri
aşa:
##rre
cără
bank,
##/pl
##ugi
##erry
##-ist
##onişti
“car
neuroc
„euro
they
mier
lucesc
cono
##vița
##tamin
##oac
##cv
gradua
amăr
##[1]
manufa
-n
##...d
pontu
cela
tram
reedit
##\\r
##ionalul
##stia
##soni
„trans
păgâni
emul
«t
„tri
girato
##demo
vent
e.on
5/
##ăduit
xvii
jumate
##-inte
##stiul
##sexual
##fic,
cocoş
##rdinar,
##entăm
db
(12)
ezită
enigma
##ențiile
negur
##reşe
“mu
afla,
„val
semăn
repa
ext
cazane
"că
##stati
##are”,
șai
rămas,
deşi,
denisa
crude
oțelul
bătută
##t",
taran
“ni
##scu:
lecti
##bala
fară
100,
condi
##pi,
##ogram
tiro
carism
afilie
##tiști
semant
sarah
##aid
sonde
iva
##produc
opr
anin
titi
pape
aval
1977,
##þa
eman
(ur
lăcaşu
##p-ul
turbin
zecile
chrome
coji
cenuş
stupef
cămaş
arafat
surv
##rările
la,
casca
##uzie
auzit,
##tore
##cţiilor
aşează
##tă;
teg
fb
curti
antal
sacre
cedeze
„mic
înfome
rebrea
isprăv
##atru
non-st
303
##ii"
turcu
chiloț
##003
##éd
varșov
adepți
##sie,
teză
subtir
##măr
„inv
valahi
self
##pii,
##ersonal
schiț
nap
ziariş
cil
##ultatel
##dualit
mucega
licent
dentis
##nante
madam
orator
incons
204
“mar
miner
inl
duri
afisa
##romu
##ensă
##denţ
feb
corvin
ceahlă
aha
ulm
arb
##tante
##gres
##deze
supe
ivi
colete
##conc
tt
##pam
ieromo
furio
##opia
latură
insign
fals,
##nţe,
reala
##ea-
##at;
scoția
cres
bent
xp
##/r
frâne
aduși
##seric
şi-mi
viermi
masc
geno
##-pr
##uției,
##dg
trombo
refre
inju
12%
nam
remo
##esu
ingeri
treaz
topogr
cour
bata
##uşu
##nă”
3,2
##etelor
copier
arăți
aleget
##ie.
scoic
fluor
##timenta
emită
##hae
##ționeaz
##gato
reuneş
euros
classi
21.0
##hiț
creata
dansea
ampl
##luci
redu
lor;
eşalon
##soft
stee
aurora
asem
##lgi
turk
săpunu
cereau
##-pe
vorbiț
sou
leac
orezul
clară,
lovesc
##uturilo
raw
pedala
##canț
coşmar
col.
barbu,
"z
##boy
moti
11.0
luther
uitase
legați
##id,
##food
trâmbi
dut
##tibilit
##ioner
##iest
207
##tibilul
##nţean
şosele
hep
qatar
olguța
's
##(20
cazi
##zimea
##isla
##-ha
curbă
##10,
##auto
scându
##isea
##cioase
locul,
b7-0
1859
minoră
caror
##some
##nitor
##lest
##aş,
“din
surf
##teme
##iră
jalnic
zâmbi
votate
##entau
strî
blam
19.00
##†
##nţie
##idanți
accepț
##e-i
天天
aseza
lunc
caiet
32,
##voc
##logul
##cris
zicem,
pădura
aflati
##p),
fune
cititu
45,
"im
rujeol
impuri
arădea
##vântări
##shop
zăvo
latini
##săm
brăd
păc
despic
cian
##ţan
obstet
„vasil
##.12.201
##rizări
unguen
cora
zimbr
scuipa
##ovo
##ldova
##gai
zer
1917
fire,
(medi
pivot
agrea
##ки
##mm,
##cunoscu
18-2
##umită
##nă)
##municaţ
„mer
stema
##mail
##hua
1974
##bă,
orac
make-u
conduș
cava
aviv
“fo
schmi
devia
##nţiat
##bucur
locaş
##tatie
##asu
##ăpă
##tran
mh
##/1991
cravat
negu
maner
loca
##gău
venin
mărunț
alexe
##.am
tranş
degre
averi
”pro
guid
groza
##mp,
încap
lati
##.03
“cel
##şire
##aren
ploies
grosu
##zările
##ctiona
"t
viguro
gd
evad
sarmal
hoi
##trezi
triv
teac
rugă
##-cre
##andu-
turco
mare)
clătit
bifa
vedem,
chiv
##hne
hug
lăcr
invet
efemer
##yen
##rcea
##lizaţi
##k.
##ω
mall,
educa
casian
ce-şi
strigâ
cather
antiba
goethe
##franc
##ate;
coapse
16.0
pct.1
șop
rosett
menopa
##ires
sfârsi
##sită
##rică,
tăceri
montea
copro
##-și
##sir
##axi
lenovo
(j
zona,
mula
mimi
chap
##nţială
tev
c7
##ăstrău
zara
vindem
dinăun
5.5
psalti
grăbe
şp
sfant
reînca
##lande
##banc
kiss
airbus
pap
jian
urmezi
0-1
##entali
ratez
prem
bega
##uză
onești
fraier
##...”
##ăsc
##elică,
ordon
neta
fugar
dubioa
chisin
corner
chirto
vision
trea
weber
lol
bale
##âie
………
voinic
usr,
##mânta
uric
18.30
##rke
nui
muniţi
s'a
kids
##irat
helen
grilă
fiat
##num
##lete,
lânga
detest
2021
##icările
termal
iude
crişan
##ănea
pumnii
tărâm
##saţie
şanţ
liberu
##2]
stătăt
clar:
1939
înso
patt
bădă
##ermi
##eram
##atat
##phon
logice
etalon
##o"
##iște,
##carea,
chil
păru
nimere
##mula
movil
bercea
07.0
##.04
„res
##-198
##gog
reteza
pridvo
clanul
##dorului
raiffe
##rain
##orez
topi
mys
##or.
slă
ombuds
lesb
##4.1
##lez
luării
##ieţuito
##iciile
##ctual,
armur
##ubl
##jl
##că”
reten
moral,
admiră
ţar
##şl
##lar,
rigidi
##2000
##țione
##icea
patrun
ninge
##urie
##ulescu,
##trucție
##gându-
##duit
##ggi
osteni
##/or
##şa,
##ngur
##ising
ciclo
##dev
îmbin
pietr
nostr
neru
grab
conflu
amand
##”…
##scr
cabane
(inf
##/com
##zia,
sluje
nesănă
##see
##ecare
##darul
sporea
fãrã
agree
"ur
##rvici
##ceput
obraz
##z)
##porană,
##vete
##tinen
##eană,
##aul
țes
usuc
seu
crust
##erit,
(mon
##iaș
jong
##gura
yan
nagy
lyn
amîn
##oreşte
mapn
patulu
##zam
##orf
rămași
extrăd
(proba
##/zi
##noz
##ason
păst
micro-
ajunşi
afişe
##oaia
varfu
aleșii
##șori
##entele,
1982
rămăși
##ăț
pilo
mann
0744.
##itivă
##iante
4.2
##e-l
##zuri
judo
##网
intuiț
băi,
##igaţie
##buire
##".
##ie"
răsf
1978
##liei
range
##rla
sider
pregna
manş
eri
como
##o-f
orăşel
intuiţ
gazdui
##-cri
##stici
##osofi
„acum
turma
tace
revars
##ersi
devi
0332.4
##r.,
##nciarel
##imele
decons
##cios,
mortu
##loi
##kv
tătăr
scenic
rovana
pink
marta
terţi
sâmb
marcân
galact
90,
toront
intr
banale
##ropic
##entarul
##ebeş
##ondator
şocant
trăim,
printu
zol
mans
iadul
evapor
avută
18.0
##-sur
psa
##ecă
##d"
ceai,
2010-
##lock
##hri
cotelo
hazard
cartog
##er)
prus
carnav
##iren
(mic
9:
##err
zoo
noi:
afumat
##tibilă
##secu
##oșa
testea
sag
award
numind
##păta
##iețuit
##house
##ever
13.0
##petr
##ințare
oponen
banda1
3.3
breaz
##-ch
##eon
atac,
[5
##enă
##cență
equi
##elele
parut
mexico
longit
găl
##vezi
##?“
##uzul
##tian
tribul
piese,
6000
##riv
##astic
poman
edu
cugetă
trataţ
mome
##tuție,
##nuită
##acti
sfîrși
nesp
mîntui
dogme
##cula
##c"
„fără
vai,
dădeam
##tăti
##bează
spaima
indu
##rdă
puntea
comme
careva
viclen
kanal
facut-
pero
##venți
##enției
demago
##risul
muniți
litern
iepura
aden
##40,
##lenţ
##icăm
şamp
emoti
##yk
##jk
##inari
##igațiil
frici
##sup
##inin
##aliste
torre
naivit
22.0
(alt
##egiu
crezul
##încet
orăşen
parizi
midi
[trebu
##țios
lombar
prefaţ
##cturale
##ularea
##enilor,
pipera
##3]
html
erudi
bolova
1979
veg
novac
etica
băc
##ştinţă
tani
savoar
marja
event
dudu
(sal
necre
emin
##tw
balcoa
##ări:
lope
dubii
##şter
salin
##tența
##enn
csa
cret
aț
antite
utila
mainil
##tă.
##any
primil
lale
reamen
##kla
##atis
„voi
stâ
osul
##-pu
schim
nobile
căpșun
church
##wen
tiff
edita
digera
dot
##âţ
##ntez
mang
1400
##tență
##ray
##dice
caucaz
peştel
loga
(agen
##þie
romexp
pinte
"b
##js
conu
##view
##fiin
auch
#2
##/12
##rteze
ţo
contr
##miţ
##pira
înalţi
kaza
##ters
##lurilor
minut,
ezitat
desfăt
##ºte
subd
dame
##sia,
##re),
„dem
”h
gustăr
##ăşe
jobul
flau
brie
##ºti
##nag
rich
coopta
##lda
tehnoc
taiwan
pib,
##nko
##căr
ruptă
##ocl
##emon
sonori
filma
##/k
##itică
triplu
încing
xiv-le
vere
năvăli
broad
##ctorul
wine
sus-
statur
bârs
bavari
##ostiți
greve
gior
întipă
papil
##nah
(em
##saţii
##dril
##crim
lovind
##i“
##ăscut
##centr
poșta
##.01
##stice,
șerp
kis
##ri.
##ipr
ș-
aleksa
##tof
##minator
înalț
tutela
##kor
șurub
leop
("c
##comm
subuni
anarhi
##orească
anp
gres
colos
##ormit
mâhni
##ctivit
mă,
ecuaţi
aduşi
wit
plin,
punga
##xandru
##prote
ziariș
sia
orbita
donare
##puse
##otr
rabat
pierit
lei;
“vo
îps
înco
novo
lucid
biciu
autoe
porc,
dian
##licarea
vizi
karate
burc
subpre
mănuși
##onti
##oko
beng
atlet
##uia,
marșul
##biz
1981
suveni
pupa
colaj
promiț
melani
donate
facere
stapan
parasi
maio
deto
abonat
##ourg
monoc
(editu
##afiilor
pharma
al.
##ișor
“dr
batem
voiaj
acul
##otin
##ofo
##mantă
scana
plit
pag.
inest
##ta)
acroba
(om
##ston
##na”
##inabil
sl
redau
cozma
##,i
##rimi
##punct
anulez
##-fl
##țâna
##utabil
plane
bm
[2]
##letă
ondula
games
diego
cofetă
chelne
acri
repară
bote
afe
##’t
##ме
##ин
##niță
lipici
crudă
##uria
înnoi
nr.13
aric
##ăt,
unim
thai
gheare
##lita
slave
gafe
##inile
râş
##ficator
##eja
”st
băneşt
##gențe
eseist
1913
tii
şcoli,
rocke
murg
lagăru
206
##crea
puc
lămâi
##9;
##omice
##leo
##juri
sene
cireş
##fei
##pio
avere,
##pau
##mori
„num
##rî
torn
atl
"as
împovă
echivo
##voca
##tecile
lament
##rdo
(ast
##rmat
##got
xv-lea
puț
groz
sero
numara
##ock
queen
plede
anti-c
##sad
rămăşi
rochi
n-
calini
(ana
##iov
teiu
(re)
##ţează
##onde
miculu
1972
(pos
##(d
##nităţil
rela
nervu
chist
frene
##rializa
##avia
##ţine
##tma
##inări
##ilor;
##alul,
##pt,
curînd
bangla
autogr
##ль
2,7
##rizi
răbdăt
plăcuț
pierz
oca
member
##uropean
##prom
##lase
##citul
tool
grun
“ace
fabi
##rman
##dov
stanca
liz
certă
##2014
##ctare
varuja
tari,
pascu
friend
##siuni
##dot
aboli
##ifi
soclu
grefie
genți
berd
##şti”
##mand
straj
dubi
,p
(germa
##milia
##urare,
##niz
„oc
viil
libi
hera
2,1
ștr
##șug
##ndărilo
##-verbal
vamală
iii-a,
##-str
rănire
imbeci
csm,
##ţăril
rotiri
rezu
măduv
##010
##vânte
##ăr,
##mbar
##steri
##ifuziun
gug
gsp
compos
statua
ramura
mină
##lod
nord-c
andi
##upu
cant
##.09.20
ciorbe
##şite
##unct
sez
pârât
##sand
zombi
ruina
dus-o
limbi,
dobro
##palităț
##elei
poe
boni
14.00,
xviii
acidit
te-
rudelo
nastas
6-2
##roba
##d/
fuzion
afirme
rey
mamife
##(f
##alizări
pledoa
deghiz
##mist
##igati
balen
amatue
##nte:
##egir
voştri
##lg
##acio
vaste
umani
##че
##eva,
pv
##ta”
##nab
sonda
aleşii
sib
inhala
gherma
„exist
ţea
irod
ibi
cusătu
arealu
alle
alerte
##erice
deprim
bazeze
##ortant
##dului,
##(ini)
##cior
ţărăne
wy
##vatorul
##doar
luce
##oir
“ad
sighiș
nr.12
cart
bolii,
bend
##atari
stupi
photos
natală
boul
bistr
##-iuli
##alar
##șnic
##its
uninom
hindu
(iu
##curi,
tâmpi
smulge
perdea
etice
##/si
ssc
roşie,
merele
brail
(așa
##ăciune
##âns
supo
robor
astrel
##omân
aure
acordâ
##tura,
##ați-
dej,
cenuși
alexei
##ândi
mcca
betonu
'c
##tuirii
slav
remani
##fiind
##efe
someș
fact
calmea
baleri
##beşt
##/ac
##pără
stil,
spațio
corecţ
256
##30.
##ţitul
##sâ
##hof
##enței,
suite
prieln
pilota
exor
(ob
##ităţilo
scrieț
ciorbă
-u
osce
blowjo
fish
(0,
tuş
##ienta
jale
espres
comes
##zoarel
volo
amidon
##urător,
##tb
##risti
##ald
unesc
trist,
tarile
nedelc
hrănea
extin
(35
swinge
gaudea
##orâ
dublu,
##ovia
##erati
fontur
##mpioan
##işat
tandem
descon
##ziei
##ne”
##hnologi
hotaru
esc
gaga
"pr
##-cor
ladi
ceaf
arghez
apicul
"ci
##pote
lewis
##răs
##omenit
„ab
adap
însur
cărare
##zatiei
##nitu
##iser
rile
"tu
##asmat
skype
indicâ
##model
joy
căutam
clai
##not
șan
răpi
nervo
înrădă
jante
decla
agen
##-ru
##mens
dinafa
alipi
##ndari
poftel
pasare
hof
tetra
mătăs
valle
mîinil
j)
cornea
citit-
„sec
parodi
niv
arctic
penel
lecția
ireal
##ор
##ța-năsă
ф
xiaomi
##onc
teme,
##rodu
„casa
puer
decade
bătăt
ținuta
bord,
##buţiile
predes
imorta
hoa
abătut
unt,
lex
##ţite
##icid
mariaj
sylv
##oln
tăt
buză
##ipare,
##ines
sacră
mast
jess
a6-0
##prieta
infuz
##tne
##hni
zm
##ciosi
##beaza
imensa
hindi
days
alune
##rch
##marin
##arab
steroi
gatit
##lich
ht
##zda
vârf,
hege
##ișuri
##com/
terţe
maselo
##oate
ştirea
ups
termom
writ
ucise
frână
##ntat,
poştă
##/cu
##ат
##țiș
vlă
afund
##aluril
lărgir
cumpăt
##tisme
policl
paletă
kevin
21:00
##ś
caine
18:00
##ти
mural
matina
,s
gelo
##-german
##ţământu
##ipul
nedes
muzic
care-a
cearc
balc
tm
mărg
bulver
##mato
за
linie,
##uki
##na)
##kia
##bach
mitral
acasa,
##inere,
##egu
geac
cnas
##2/1
##uţiei,
##lama
xenofo
(numit
viraj
ustur
stav
hoț
fierar
##0/201
zeama
pășun
gaz,
##vsk
găină
##ni)
##ndritul
##iziuni
palmie
1938
##venient
##pli
zadarn
----
##.po
##.to
##nato
##mandă
supap
##-21
##uge
##idării
##imă
smer
adepţi
##ivități
wag
efes
dă-mi
bv
andy
thor
butoi
arpa
##icţie
##gici
publi
neatin
cursei
(33
##oas
name
##[3
##rtare
panifi
fortu
osm
1956
ø
spă
##y:
##tizate
eno
citise
##nici,
##ne”,
##cou
afine
##stop
##itz
##oad
tumo
cito
##nirii
emma
##sev
##dier
îno
spl
dietet
ceas,
##ers,
răsp
fată,
încrem
fişa
fisuri
##țările
##pend
înseta
recâ
fiar
(4),
##renc
tamil
nese
##tești
##on)
raed
dsp
binefă
##van,
simţiţ
predil
##s-a
pack
numaid
##…d
##sat,
steag
l-aș
##ulare,
##ne"
##mpr
sfînt
isto
expoza
(fl
##nea:
##getar
breasl
bloc,
19.0
##alin
(dan
"ga
##*)
“l
liche
grafi
##enim
π
short
parast
nemărg
mg/l
kari
fluen
##ăin
##suc
##erind
ince
##/100
##ţi-l
isbn
1986,
##]]
##butie
butuc
##teas
##hiţ
##...a
fiice
„stat
ude
vocali
soresc
##ţiază
oferiț
gri,
(ceea
reghin
greșe
1946
##bilităț
scro
firulu
năp
##țăto
##rofi
##ecte
obtin
##2;
„man
jel
crow
##ă-s
##sate,
##esorul
##chii
feţei
rubl
"pă
sturz
sfeclă
rută
poşta
colori
##ę
##torit
##iuni:
##eit
##tățirii
##gramul
vizit
##derm
pran
mille
'9
ţesut
wars
urss,
duce,
(190
##ștrii
##eanțe
moise,
mediaş
##же
rogi
pricop
luxul
atrase
căli
ciopli
##ed,
sabat
lipsiţ
șer
ţep
seducă
secreţ
negr
##sitati
##jm
înălță
sortar
gorje
##pciune,
măreț
agrono
colosa
beiu
##-man
##ар
##row
lebe
##dex
amara
ajuta,
##țet
##fur
dinte
și-și
frâu
corti
##ele:
„mon
vitel
păzito
papă
călim
giule
##ways
morgan
family
antis
supara
sah
boe
baroni
anr
##șită
refu
1976
##ționer,
dilata
psi
mapa
elu
##rhală
învoi
muşt
37,
##oratul
##cili
robotu
nestin
level
##aşa
lico
##piului,
##gore
##cure
bacon
##rno
##eu;
swe
1jr
pareri
leont
buta
urcu
concet
amărăc
impedi
##grat
##du-mă
“so
tenac
mâni
fierb
autoi
viț
varsă
##erizare
##ê
##azu
străn
regla
cuiva,
calde,
##ea)
sighiş
lamina
ad-
##matice
toții,
foarfe
decapi
agi
duio
##fto
36,
##997
##mou
##ll,
„gheor
ghișe
##itiei
thes
erupți
disk
curc
celuli
bh
##şoare
##ăcit
blan
##istica
„ste
leului
bé
alchim
720
##renii
##arcere
„spi
mall-u
##roe
##lci
##dins
paleol
corel
##joi
aprobe
##020,
##zării,
##tăţeşte
îngr
siropu
neînse
glad
clark
##te),
##ar”
nr.19
dmitri
##omuni
##buţiilo
regând
descă
deal,
biochi
leş
acciza
##át
##tologie
##deli
lanter
gland
ceaţă
banco
past
grile
“cre
##utii
„cul
##rnici
staff-
vremel
cârma
coper
##facer
râvnit
posi
fixată
alam
##π
##orătoar
bee
2.6
huidu
ţărm
seriil
eredit
##iaţi
papal
colaps
ceață
alung
acce
1.30
(const
##hilo
demasc
##rganism
îngro
ucidă
##ia.
##genţi
cubul
buildi
##ăşesc
prinzi
bã
##iologic
##gibil
ratb
fortun
bolşev
##ate”
halat
##nderi
cedeaz
.c
##rană
şiru
trav
hd,
grați
##rul:
##oace
foot
##enele
vandal
urcăm
opus,
2.8
##zica
##amint
piț
1987,
cuza,
corulu
bât
##pora
##osta
##cţione
won
grande
gig
reînfi
quar
microo
tiru
de-as
##izie
teamă,
sepsi
limfat
benz
##ocar
„nou
vîntu
romgaz
mărțiș
dubă
bănică
begu
lps
##âlni
##iec
##hiar
înşir
împro
10-12
##ump
##uba
nesu
##şia
##rolat
jele
tripla
trep
țărăne
digu
##năre
salm
uzul
toci
parag
autos
santo
plugin
##alb
prefig
##-el
##laz
##bau
sticl
##omm
flancu
##4.200
citând
6)
##rve
##apta
boot
##nev
batist
(he
băs
antip
##url
oh,
fras
##sare,
samo
##latur
##eau,
„sub
hort
flot
290
##trol
„bl
şopt
hap
##pens
##lucr
doga
##ţiului
##ărâ
încheg
subc
defecț
##lui”
lăpuş
juli
goal
ches
##nif
##jes
t,
sucule
capră
beh
"ho
##ndre
„oric
uragan
suprat
plicur
tăietu
stof
șablon
percu
##tze
upu
trăsn
ti-
##zid
##medi
‘s
goana
##electr
jacob
eroziu
redobâ
##xv
##ersita
şaptea
mihu
boh
văcăre
virgul
semint
nego
masti
##ф
##jon
toma,
sîmbăt
recap
neagoe
lovine
##iete
pild
golg
căde
brad,
abil
##cinat
samari
##e.”
22.00
##ăle
tip,
creţu
##rofal
stoche
zeamă
##som
presa,
aurulu
„fac
sate,
pantă
##tuat
privaț
bucle
atent,
##xeli
revăzu
parbri
flanc
##ofa
„prob
scarl
##fob
corl
cerşe
abis
##dicție
belle
unici
trid
rusu,
oltulu
##ing-ul
naso
##anți,
todo
repare
rafină
mitică
silab
##uso
##iţă,
boston
##ul;
nez
nb
##ști”
##umire
japan
##tmo
##izările
##aug
„gen
spaimă
ernest
erau,
brete
(sin
jam
##olid
zbor,
haral
emeri
22-2
##ui“
indema
##rturil
##rade
“n
poş
##tra,
##mensi
##icien
grim
wester
##sum
##rșire
”do
6,5
țur
rețin
nedem
minţil
implor
eşuat
##/umthin
auzite
##goo
grij
căprio
abdic
'p
##cod
##pirat
##ormării
„m-a
minere
mielul
loveşt
bănățe
##bato
sătmăr
##éc
întinz
vici
talo
măşti
asti
frăţi
bine”
adobe
(ip
malign
beth
##tita
îti
strati
petent
frize
dințil
##entanț
orbe
##vri
##tala
##sc:
domnes
##venţ
##tej
##gs.com/
##998
##nform
##manță,
nesoco
##ziona
toac
plăm
&icirc
##ocr
##izată,
„sfinț
rusa
kli
reglat
stenog
inep
fist
excese
##-40
##ăşea
reîncă
iosif,
iordă
greceş
für
##grafice
##alc
salvaţ
bună-
##liti
speed
pitici
intarz
##tinat
##rezenta
omonim
##zne
##iche
suit
pufo
precur
##ndin
insoti
iconog
##eteni
voinea
##ȃn
en-
(bucur
(hi
„ag
însuţi
##ubu
video:
oradie
##2001
##vării
atata
-3
##in-
redenu
legă
(actua
##moldova
##uți,
##solu
slujes
forbes
fio
##tanta
urmăm
mușcă
insinu
căpr
##prop
„moldo
pãr
nefolo
ioani
făur
arhaic
ziceau
regasi
decen
d'a
broșur
21-2
##gesti
omeni
major,
19-2
##ал
##erci
irine
##nătate
##nstein
pleda
arte,
##icaţiil
topol
stire
audia
##/j
##tlon
##maraton
##c”,
«e
văduve
ride
##onism
rete
reciti
##punerea
îngâ
marchi
craiul
##şnic
##ław
##cționea
uzură
orășen
brățar
hotăra
##locui
##straţii
taylor
mare:
give
cie
##tep
##gger
snagov
##gir
ramana
deno
berna
##7.1
d-n
##′
silver
măc
bras
##țiere
știrb
zecea
acuzân
##…n
##rafi
##nicola
##iol
„fii
scrie:
pamânt
fișa
even
chib
##ormăril
(sf
##sirea
amâna
afișaj
##-europe
##gaja
##finit
mixa
##itol
ox
##urele
„luc
legata
##l",
„prima
glisa
„ed
preiau
fictio
dae
cauzal
banală
##elarea
virtuo
csat
(judeţ
wind
curu
##ceanu,
##bz
dilema
##ntației
ustens
pozat
xperia
dgaspc
##us"
sîn
pupă
surâs
mîndr
ia,
##@c
##hc
##incios
td
scăpăm
ignat
eco-
(es
voron
mania
##mele,
parl
hugo
##sop
dublin
cream
##spir
##n/
##retez
„auto
gates
dănuț
cex
##trez
sanc
croit
basili
(cât
##scute,
gradel
dezama
valcea
retea
nemu
dară
anunţe
##.500
##von
sfâși
mexic,
anglo
##-02
##biril
salcâm
bloom
b-
##alex
apuce
##irc
pustni
##iv:
##sio
“au
uf
##olt
##etățilo
(ele
##lor.
“gr
icon
bestia
##15,
##andu-se
inva
##ţime
##ăma
è
rouă
##siho
##pant
mice
##at”,
nm
lucidi
clape
##şti:
##nya
##it:
video-
utile,
taxiu
##mî
zidi
t-
samu
repl
hri
atena,
##şoa
popri
binein
arenda
##ivat
km/h,
(por
##acit
graiu
[3
##făcăto
ventu
riv
iluz
##4/1
##-mai
##evan
puş
alpi
anm
##osp
raliu
##:office
##-time
##tap
##oți
##cred
tov
oţet
golit
trista
22:0
20.00,
##n-u
săgetă
reperc
hold
chesto
bela
##seal
pavele
camer
(37
##stanţel
capra
##tarism
“bi
„istor
term
lor”
insă
clase,
ateste
petroş
gazonu
refac
estică
caran
sud-co
pini
făină,
021
presel
urci
ani;
##rie),
##icit
2,6
rcs
cv-uri
##tecă,
##iator
##buită
trompe
##nești,
timpii
lug
griji,
"prim
##7/1
##vara
##pov
##ancă
nedisc
##ie),
lászló
lacun
jucam
diff
cren
clear
capo
##vî
##mintele
tund
năzui
harvar
machin
barem
##zac
spring
ostaș
nepoţi
miliți
cump
##fică,
##eu-
fustă
eleva
debi
##ţionari
##t...
##jate
##hoc
##eriza
solita
neexp
artefa
tumora
sârg
izvoră
fric
##anului,
##pari
##nda,
##bali
cite
băgă
urcând
##ysi
##cera
##c;
wimble
porto
(precu
##mure
##iplin
serbe
##ășeșt
mită,
depase
(cele
„care
vreti
lău
preote
omit
maioru
list
##u-s
##șito
styl
maki
39,
prostu
acte,
##ãru
fiori
##ratur
##cki
ingra
##6.1
##todo
##erata
înlă
sclero
aka
gând,
##riş
35,
##hli
##are/
„cent
psihan
paștel
csms
turnar
recuz
##001
##biliza
simb
##scat
##p/
branc
”n
##fk
art.10
##biu
sfâşi
lupe
ciucu
##2010
preist
incon
480
##eraţie
imbu
griv
piure
jilava
##trel
##iență
full-
carni
##şterea
5-10
parohu
##5.2
vijeli
veni,
most
dall
##ps,
bino
simulă
##caș
trăgân
prunc
##1.21
##medic
alăpte
##tipuri
think
##ng-
##pular
turbu
ocupăm
nesimţ
##vism
opoz
hranei
(sem
„inf
ursule
plea
ficţiu
bail
##-român
zâmbea
baston
##ice;
prolet
##ei.
șoarec
flac
##șe,
##rându-
##entanta
trie
euroc
(când
##/ro
##âmpl
##rdin
itu
huse
##ceta
bass
„ni
ien
citare
##țeri
mere,
boj
also
aspră
##nef
roșca
luca,
găurit
inclu
##war
hriso
firav
capte
amfi
38,
##âmpin
untold
măgur
astup
##tă”,
##reaza
##itată
răst
plăcuţ
lemnos
dobito
##uil
##izaţia
inf
insid
##nsc
sufle
silves
brothe
amuzat
##ătul
##sep
420
##vânta
##mobil
’80
poh
##întul
##ecăți
##cție,
plac,
pfa
claude
##țeanu
cedare
atașa
##ck-ul
căşti
cailor
(ef
„sup
babeș
telep
dimpre
movie
ideal,
enz
##eți,
oste
coleg,
17.0
(man
##iter
##imil
kad
ce-au
brus
##ло
titule
states
coda
##-șef
##liști,
“tra
csaba
concub
##[r
##')
##on”
##eaţă
țigar
timoft
nepl
##uctia
##stând
isma
barman
##gub
meghan
##ão
-o
„mâ
orto
hemato
arheti
##/li
##entand
„bine
ron,
educă
domol
##lilor,
maie
«l
lgbt
veşm
coapte
aur”
atroc
##ănel
##ângere
siluan
pande
megapi
lipid
şefia
stari
238
##țați
vrac
exege
##ptămân
##icţia
serbar
maus
de-at
aici)
sătu
bridge
cântăm
conto
ajutaţ
pâl
##tivit
##neaza
pube
paca
,,n
##-xv
##işe
##șic
##uas
coate
aviato
aduceț
##eşte-
rachi
pict
navet
cununa
altrui
însume
wellne
iţ
geru
fall
daciei
nuvel
elli
clande
(exc
##lită
##ب
##niza
##gala
##lca
##just
nedec
englis
##ănit
##aun
făptui
##xin
zân
sigi
“int
holuri
ghiz
##dat,
counci
(exp
##arul,
##e-uril
nr.15
ket
"noi
stare,
outloo
hrană,
cock
##sarul
##gule
scurg
ovine
má
mamici
lipsiț
##unzatoa
##ultat
##tero
„drept
tombol
router
”ș
stud
bătăil
bayern
anexar
4,4
fak
##hnică
mișt
ler
injecț
calm,
##–a
##uzele
peren
##9/1
shan
dealtf
‒
stoarc
savu
coba
cimbru
şede
îmbr
jord
flăcă
buk
rada
17:3
nobilă
##彩
ecran,
##băt
empiri
24/2
##lmente
(min
tamar
reche
candu
##tibil,
##jung
vaid
neap
avanp
##manțelo
##ceşte
##gaţi
##07)
##vela
epur
##după
emoția
2016-2
##ovski
##bona
alto
##ation,
##anov
pino
borz
##lă”
##heorghe
încet-
##tect
##ister
##div
##://
##的
##şări
##oră
totu
lărgit
eminen
‘p
glumi
naz
[re
3,4
##roase
##ley,
mămică
ike
##ele”
##fărul
neo-
ioniță
(docum
##tou
##liului
##făt
##erien
rompet
„vre
“pu
unit,
recapi
##bian
tăvăl
testi
##ăriei
##kovsk
sale:
legumi
colore
##uzin
vâlcov
secetă
formid
sădit
micu
1877
##vede
voy
vișin
cader
##rvi
scafan
##rpret
##rbă
naos
gazulu
calci
##idra
##esori
praga,
##ntăril
camin
##lly
nich
##ându-vă
tamb
kiev,
bologn
##ãra
milite
##ştient
##reşul
##nur
smulg
gou
##olicit
izbe
hano
carg
##enţială
rană
00:00m
slăvi
mba
ceata
##tatul
tobe
fmi,
##ntelor,
##it”
kei
iradi
auf
##lezi
uterul
alungă
5.0
##nturi
vornic
17:00,
usu
enter
##endent
45%
##rans
τ
păşun
prăje
prei
oşti
eu:
##3.200
##fâ
iremed
2.7
##ǎ,
volta
subj
cium
##ulu
##ora,
urg
silic
reneg
refuze
##o-p
înşe
v-
quick
alb-ne
##/tr
##nț
furn
barica
##inia
##carii
râdea
curr
##sator
大发
tinuta
moldo
miller
##șar
##aliz
seli
coma
raman
careu
2,8
##osit
##ndu-m
turcea
tana
pretui
##ânil
peni
##iar-
##iseră
deviat
celeil
carna
„înv
recule
numărâ
oastea
brai
anamar
##tațiilo
##enda
înfuri
sán
pendul
blaj,
##lte,
##iu:
##ienţ
yahoo
foruri
corzi
anaf,
oliver
depr
capri
cann
##tărâ
opa
money
gonz
reuşim
arts
##mnat
##anitar
vibran
sip
sinerg
răv
##-per
simil
renală
orbit
##4]
##sier
vlad,
ruine
dali
apla
##6.200
##dam,
##andei
”să
premi
p6
coci
##muir
idil
16-1
##tmul
eff
##ţios
wir
umfl
trei-
##științ
raliul
##lto
ls
catarg
##yst
##kha
##ecia
răstim
altu
##servic
##entante
postun
parm
consfi
celt
##ilei
##buze
remode
(trans
##porane,
women
talia
stângi
##nţia
anat
survin
ghice
##nghi
##aciu
jucau
interg
dinţii
3,7
(cur
##evăr
purc
"be
trânti
rock,
hetero
(60
luări
coldea
##ogii,
puşti
evit
cîţi
8.1
##arizat
##né
##cţiunea
neor
clăti
serie,
postli
intu
##elin
(mul
##mbe
##ețil
înnă
listă,
cipru,
cambo
poo
ploio
##ârs
##mmer
##ei),
„aș
bazar
pelin
follow
odorhe
imită
mend
ce-ţi
1947,
"mai
goe
dud
cuș
##e(
##dmi
„sol
##-ia
##eser
##trucţie
ăl
wilson
strid
gad
căutau
alca
"nic
bârf
##ctualii
vărul
câte-
##tav
##evski
mustr
(mini
##etat
măreas
##ustr
##erman
inuman
discot
amărât
șosea
relel
priviţ
neobse
moon
somno
sita
pește,
graba
0,9
promen
natal,
##(m
##–19
##icativ,
“com
iscat
##gesc
##edier
găsise
bestse
##liile
##isii
propos
ankara
##stoi
##ristos
##gical
##gheri
epocă,
cadran
anor
##știent
##ghet
reci,
bina
##3.1
##sli
##pâ
##edări
porcii
##mnezeu
##alba
reinst
pășe
porție
audio,
15.1
feţe
##?ii
##ă“,
##opt
plecă
buze,
ală
31.1
presch
pain
lumi,
##’n
##rst
zare
anei
păroas
campu
##-vodă
##ibilă,
uniți
scăpă
median
extr
##...s
##ties
tof
larisa
firm
(surs
pestei
##ia"
urmaţi
supraa
«i
nesat
##rese
tabela
rosi
luxur
curgea
##2.2018
##ămi
##veder
##omand
rămaşi
rîu
##izon
##flet
##er.
şoca
tuf
notaru
##-nea
##r-u
##epo
shel
##uţii,
##ptări
##dist
perna
necuve
##fului
statue
răzgân
ieremi
șpa
lacom
##rierea
##quet
##enii,
ograd
cell
##ioase,
imun
vale,
vecina
(aplau
##uinţa
pauli
panel
intrer
editio
bucal
##zitate,
zeiț
tavanu
##toz
##sticată
vîrf
34,
ue-
##rativă
##nt:
##hw
pe-o
##teasa
##rgo
##sã
”pa
şta
se-n
lupeni
##stată
##kid
##ivităţi
hyd
##entiz
zoe
menaj
fereșt
pixu
feudal
crean
allen
##cca
mareșa
lauri
excre
cee
##nt-
„regi
start,
prefaț
boieru
##;t
##nier
##matul
##ariat,
##5/1
##cleta
tango
povă
##ŭ
##nime
inda
##ntând
vî
preţ,
“mă
song
poj
intemp
3,6
025
##u-t
vioa
cocoși
##is:
##eilor
##e]
##bete
știri,
pătim
##ï
pei
gn
(pl-x
putrez
patr
pach
tergiv
ghir
borș
##urează
##teţi
calmă
reunir
postd
margh
glod
fidelă
ecouri
„ter
testos
##isească
##igh
##comenta
##jați
##elă
”se
emotii
brăţ
##ltăţil
etala
beeg
##uropen
213
vamă
palet
hed
##m.r
##lco
##elile
fețele
(pr
##wea
##sg
„hai
pecete
omu
##i!
##ecta
cae
45.
##11,
##э
##poz
##drea
##clea
##articol
##andru
sard
lăzăr
dit
adelin
staţi
##rcat
##exc
taxat
25-2
##lipuril
dezins
##sători
##sabilii
##ngo
nuante
sterge
reapar
##razi
##kovi
monahu
matth
(inst
##valent
simțir
modi
îndără
turcil
mp3
intraţ
##p-uri
##gite
brandi
##rofă
meet
adam,
##upr
##mme
##itări
##itoriul
„em
nr.18
adopţi
##âte
##ierile
veșm
frăți
asculț
clarv
##sburg
##hre
##enesc,
zboare
convul
îmbun
liftu
##edinte
##scuta
##n;
##șești
##dici
girls
chevro
ucig
pompar
enterp
tihn
iah
##intele,
##deni
magici
jennif
##inen
încape
pusa
pirote
ocn
gud
##stitu
##entii
##ви
##între
inconj
adus-o
șterse
##rnicire
mitic
groaz
oso
##rgu
##autor
capace
##rcul
##kai
##ionisti
##at"
##ader
не
hali
haide
saș
dant
carame
##păi
stînga
(ri
##film
turca
floră
cerbul
##ionaliz
##dram
reptil
prelud
oric
nevoii
dur,
după,
##hiului
##etari,
##busi
##be,
##a“,
stânje
rana
curma
##5.1
##pai
##ntală,
savure
polei
incă
albire
44,
340
##isem
##dific
smochi
oceane
inge
grăm
##stanți
##ogilor
##izăm
##efa
înrol
propi
pou
operez
ne-ai
cuve
##mili
2010/
##‑0
##jocuri
##igaţiil
zăbov
##useţ
##sitor
##buş
##andr
„ti
prela
giuli
capta
atom
##.un
##ش
##teu
##r-o
##ni-
##char
vice-
folia
diacri
##s.com
##ranu
speță
court
##țan
##ăviri
##le),
romc
chilii
ﬁ
prav
copy
##.pro
##ãtu
##viș
strân
patu
exte
##rb
##lve
legaţi
##hezi
##etare
roze
durita
06.0
##,”
##dox
uniri,
tutunu
cist
afişea
##ânte
##operit
poteca
nig
iraki
icono
##ăresc
##ădit
tren,
manta
huțanu
##rgh
șch
ascet
alg
călu
##ebu
şerp
orfan
mătur
(încă
##cțional
văzduh
olo
lată
aflase
##ndum,
##mple
##mescu
templ
blana
##su,
##iș,
”,
sabo
purtaț
negare
ieșene
fana
chefu
##sure
##eacă
înto
tăiați
nepa
etimol
cupele
##?…
##ăe
batut
only
##ivo
votat,
##nţată
bnr,
##oal
##mitele
pic,
##ison
##idjan
##ciet
carab
##vorbi
##tari,
##idate
##alit
mușca
elucid
##nni
1960,
(prof
##ichi
„contr
zăcămi
pita
palaz
buzau
##brat,
castin
##șele
##smi
răsfrâ
ochiur
##usta
brit
mean
petic
țevi
smaran
cârm
alla
"gu
##țez
##ătr
##oririi
##ependen
încl
rădu
petril
nak
##ол
##lelor,
##lanc
înflăc
nați
earl
##ager
##ieli,
osteo
mold
(ai
##ndentă,
##cni
l)
ginere
boti
##mnez
salvăr
lub
căld
aştepţ
pariul
garros
##state
strice
kv
hack
3,3
##osl
##bota
remiza
navigh
comet
biome
(2,
##oziți
lyon
eufori
dora
bizare
"cân
##&r
##vidiu
##st-
##laj
perind
ff
dui
##yar
schițe
ciri
afinit
4/
.a
##moc
miami
vån
mătuş
irel
cuplat
jenant
23-2
"uni
nămol
fluide
3g
(clas
##-cons
##atelor,
șopti
păț
cenuşi
ţesătu
morţi,
lon
grăbes
easy
250.00
##ül
##scutul
##ram,
##deca
geneza
eclezi
beatri
##ntati
##ajarea
fris
despa
creea
##sala
##opat
##chte
glos
diside
spurc
renale
juriz
bără
##zau
##tria
##press
nazare
dung
(intr
##uţi,
dz
cătun
##umi
##sonal
##even
##cţiune
##cţiei
tend
plet
morfol
chibzu
bleu
piper,
colo,
##…”,
##club
ozn
dus-
##ionări
păgubi
grinzi
discov
##240
seat
iepuri
hillar
esch
##pop
inexac
aibe
##t-ul
vi-lea
risip
pesti
opozan
handma
motoc
##şti)
##raţia
##ală:
scrupu
presen
jugu
felea
căptuș
caruci
ripost
arcade
10:3
##sitate,
##ciune,
şi…
june
(cunos
##zari
##ondenţă
##fn
grui
băie
așezaț
##x3
##elen
sole
pilat
maho
heart
decă
2006/
##rug
##plic
richte
andria
1906
##intern
popu
##ționari
##icata
scobi
buric
##semn
##ontin
##ecii
neascu
edite
arch
"min
##ulari
##fila
##er”
##derile
##chm
##nțate
tres
##ăduire
##zito
##trivit
##ficare,
##etre
bivola
##ruden
tomisu
(gre
##șată
##ilitar
##iei”
evităm
della
##…..
##hian
##lpi
##isn
veaces
săse
rol,
##ilea
##evici
##eter
##cim
visăto
patina
100%,
##util
##iolog
suită
solubi
accepţ
softul
##ăne
yv
cărări
omnip
doj
appli
##ride
detinu
simu
neurop
neol
grabni
##purile
##ile”
rudi
incine
abato
##a-n
împe
pomic
magh
artro
tentă
scalpu
[m
c;
##3.2018
##fuit
toler
atingi
##veste
##olv
vinci
tangen
seru
inghe
massa
gras,
dar…
380
1917,
##undabil
strige
sprl
peg
arter
arno
##zilor,
stoian
ema
##utu
amiabi
agăţa
(ult
##şită
##ientelo
sedent
fede
##ășt
refuzâ
quest
frei
devans
##ory
##nso
târzie
sans
proe
incul
edem
##şov
##tica,
valenc
dătăto
09:00
##ovin
frie
##oare;
smiley
##ales
gutu
creș
„ado
tende
pect
luat,
##-lea,
##olitane
spr
sfoar
##na-
ч
gé
##rătoare
##vântată
##eși
##cători
„perso
suicid
răscru
##1.19
##nizări
##bura
suppor
neho
##ucr
zărit
casetă
obţinâ
dublul
andro
##ânale
##ntar,
unește
tâ
pățit
##luit
##inilor
„fie
##@s
##oziti
săm
dublar
##nstituț
tipică
(luc
##uindu-
##dați
##acer
ó
schl
goj
depin
##tilor,
vui
sacram
hec
led-ur
iaurtu
dh
##venti
ţi-o
odr
neplat
impi
##?ie
viclea
##genta
boil
biod
##-pă
##ălu
##ilar
##gang
„sim
tert
polime
curba
##ltorii
##dni
ș.
tonus
seacă
palad
memor
cioro
(ins
amiral
##tecilor
treceț
fungi
"1
##ý
##pete
inj
"leg
##-sex
saliv
aaron
##etenţ
winn
wea
sfar
##xm
##ririle
„rom
ges
cîștig
ardă
salb
##ngs
##cletă
jucău
##nțare
##gați
„go
##orize
ieşim
lungu,
2-4
##stire
mincu
kata
antar
##ăsur
##hle
ţari
primat
obscen
însi
văs
retr
glumă,
##gara
reutil
nichol
satin
leza
călcâi
cloru
botul
##.do
și-am
##eturil
##comunis
tranșe
săracu
##edat
##eana
„ele
sorg
##ăi,
##violet
##hind
proco
nadia
votez
sahar
aspre
##psit
munceş
incasa
evacu
1985,
##rave
##miza
##ză:
vac
oan
##dece
mărită
##amente,
târât
terti
helsin
##-ale
##menteze
##erta
bezn
##țiale
##are"
franțu
ferenc
antaly
păsa
arcuri
##canţ
tomate
bruno
gmbh
##profes
##enter
##bru,
olympi
măreţ
dezarm
##.pe
##rcu
##hove
țint
rezi
bunăoa
'8
##uvern
hărţui
##tutiona
##eid
##ecât
ierb
făcînd
(edi
##nts
##genţe
îmbăt
picnic
##rabile,
f1
##lizată,
sparg
rezid
aiud,
##ămintel
##erații
mă-
gues
gandul
##acta
,,t
nesă
mesaj,
apple,
##ancar
zoril
siri
răstoa
misca
johnny
bufet
(cin
##ciez
##acea
silvan
nevăză
bete
##omani
##oleu
##idează
##desh
plutit
211
trupea
pedale
eutana
##idată
##ășir
##ctonic
uzual
melan
cuptoa
##a’
„toate
ușure
prope
platea
pick
patino
muncim
##văz
##anis
stănc
iadulu
comasa
slabă,
pok
diuret
##duse
calafa
##oare:
ads
##ovat
##had
întor
petron
calvin
##ectan
damă
ajută-
##vanta
(34
##ltățile
##emat
clim
##olan
##ifo
stingă
##urel
##scur
##door
viciu
frumu
(oa
ceva:
”u
încal
(spre
##a-s
prie
piel
lay
jură
infest
##vând
„mode
„f
intrin
(act
ratelo
asumăm
##¼a
##t“
##egiil
ritu
motto
(lin
##riji
odă
##ndard
urâte
stigma
cere,
bunelo
##mei,
##cultură
kab
hamilt
##ling,
##formant
ö
loțiun
clati
bluză
batai
##ormato
##ii/
##alita
##tiliza
sudur
olte
##tz,
##ngate
sandra
lamel
##sibile
##atl
strung
pieri
galler
aluzie
##bire
trădea
lipite
248
##rab
##iunii,
##cismul
##ratoril
piso
##tograf
cereşt
##ilu
răne
regen
kali
abat
##ratoare
##cument
##bed
zâmbes
##âde
##nius
##ariere
volan,
heav
diabol
crom
(înv
##7.2018
##pează
răcoar
inec
imbat
(asta
satur
palto
apuci
buch
##nsp
##d-o
poteci
iani
hoții
aprop
livia
agra
abțin
##wc
##nentul
innova
##pital
##arez
toxici
pisi
iazu
agrav
##?u
##uleni
##boo
##fânt
maha
k)
flow
4,2
turba
sq
neşti
neînte
balaci
plast
##getic
##erale
##kom
##buiți
urzice
climă
##riti
##lsi
##cipi
emană
descal
##sen,
##ioru
##estat
##biei,
„înce
gustav
danci
castr
2017)
(spa
##tren
##naru
##ciaza
redea
evada
enunța
înotăt
lipo
##ătea
##trem
ți-l
dezmin
cotro
1930,
##pân
##ering
poluat
movilă
luchi
averii
ştr
##unoa
##patru
σ
renasc
##ndata
treaca
senin,
reţin
ofensa
curt
asc
(sim
##stanţe
##cl
erod
ey
4-1
##onu
##nătăți
demet
6.1
##\uta(20
##pționa
etnii
briz
amară
##ith
##iati
##agn
se-nt
macera
carla
4.3
##ля
##ademi
vâlce
maslu
laten
ebo
creş
##ţeri
##lize
șocat
scorți
amoroa
##9.1
atm
##benc
„ț
mitrea
gorghi
căutăt
##er-ul
vîrsta
tisman
helm
dozel
(euro
##umirile
##scrie
##icil
##tizări
##ologiei
##o-s
##lele,
“fe
palo
lear
label
canc
bout
5-7
##elui,
##drive
##bi,
vill
patima
hris
gill
gabor
carami
"cl
##!»
m1
cleve
##luni
leancă
grasă
##e-cumpă
##dria,
zdrav
bip
volumi
sfide
podeau
gravur
##ortodo
##matici
##limul
camero
3,1
zâne
##ăsă
snapdr
resedi
##lusi
“ro
milli
##erte
țari
szi
polist
fazei
atra
##valori
##rana
##feren
(det
##ăva
##arate
sinelu
marş
imo
##xuri
##kov,
jean-c
ghet
(www.
##isim
##fro
nene
livre
ciuma
chili
##bourne
serbăr
pais
gentil
check-
##nistr
##lz
##cî
roca
deznod
cât,
common
##ilor)
virat
juveni
dand
anthon
##uren
‘d
##hma
diluat
10%,
(„c
##tăţea
##işor
##iectul
pneu
##cabil
##ariu:
staff
speli
sotie
ney
masaj,
dezbra
rareş
##niuc,
##măre
zămisl
v-lea
sfârșe
##rdizare
resi
hoc
##stemul
##etr
##ribuir
învi
yam
slavic
lel
1905
suv-u
19:00
##lame
molda
art.8
##muit
##haus
##etichet
##agu
întine
dorian
##vai
##adev
grau
dînsul
croia
##țoi
##nos,
sepa
inofen
,,i
„conf
mărite
##ogiei,
plumb,
gate
eferve
aid
##ormându
##oame
##enste
schul
hexa
hawk
##teo
##ri;
##putat
nuvele
dăune
arta,
urias
psy
##ăă
##vaz
tesalo
##zent
aren
60,
0-0
##-că
##vităţii
##moto
techni
ande
##ster,
##ionaţi
##-pre
##天
##grarea
##blicat
tătăra
fin,
fault
criș
gârb
##ker,
perfuz
##tiate
##dact
opriri
comodă
cecili
##-mă,
##ng-ul
##ienţă
##dma
scane
nemț
incal
carul
##puc
flotei
cauza,
##omâni
vată
ceașc
##entanţ
adolf
##nten
##nment
##andist
tsu
sele
peisag
##trația
##rației
trimiţ
speţă
mü
##ştinţ
pani
panam
euf
ajust
##üh
##ãz
viţ
păpuşi
nispor
marfă,
1988,
##erală
rigori
marit
halt
##zib
“cons
capitu
##快三
##ularita
parven
bife
(dep
guar
corup
clișe
mutaţi
diver
deduct
condei
bunic
afl
##hiu,
pătr
intind
coşul
"înc
##turii,
##nțier
##.pentru
##îne
șamp
sports
eps
##ем
##șni
[...]
